conv_3_param_0 6.894312 4.121370 6.209410 3.318085 8.667794 4.421202 7.908953 6.388371 3.574594 3.559200 7.195048 4.014534 5.103982 44.528801 3.176473 6.228799 
conv_4_param_0 192.009293 81.938911 76.806534 258.936737 113.610664 104.145782 137.607330 335.430450 58.573605 500.049377 88.982971 240.880539 239.184708 56.212307 333.196320 138.338684 61.356716 112.432724 147.561905 186.646286 185.984634 398.044342 196.046646 106.182838 228.384750 131.223373 340.276978 224.909943 287.202454 129.724564 145.159836 98.361343 
conv_5_param_0 442.288300 422.291565 252.043793 124.275208 137.995300 295.722778 215.250793 117.348068 167.172150 113.630341 253.348969 83.753601 167.045059 205.618652 92.837791 163.228439 530.398254 141.524948 180.168564 103.320732 211.303619 201.946274 504.356476 223.306122 547.223633 176.808029 388.470093 105.890289 272.129730 235.527527 355.166504 376.882355 
conv_6_param_0 363.112274 488.542358 449.540833 472.505157 1143.745728 367.898346 1034.021973 657.771545 
conv_7_param_0 2.794969 1.506532 2.110736 1.743169 2.826859 2.609436 2.279213 1.969551 1.573960 2.434649 1.899279 3.167166 1.597596 2.512510 2.438260 3.408395 
conv_8_param_0 473.686676 206.602371 181.436935 300.507904 274.180420 447.631439 143.842438 234.496628 456.537994 123.088539 277.845795 174.745056 276.182129 234.968765 130.647766 361.091248 261.825287 302.287964 188.211243 515.560486 163.457016 424.527985 303.632660 352.661804 206.964401 182.243576 322.861969 300.963989 125.466057 301.279633 380.506439 178.640869 119.717941 310.831329 274.456238 268.129028 411.206787 172.515778 178.925705 189.173828 350.794342 434.030884 123.143440 217.823151 446.102722 188.929764 946.343750 370.231201 430.562683 148.111908 319.906860 375.910614 258.906372 285.006012 779.915894 200.498825 225.755890 283.459045 1014.958374 251.016800 391.713593 348.293182 182.933609 225.825851 
conv_9_param_0 2090.622559 1486.920288 1159.425171 1153.116455 1029.070312 1313.015991 2234.461182 1198.496704 2387.310303 1522.976562 1398.380371 1707.764771 1586.520508 1113.993530 816.018005 1162.408081 1645.838135 1717.302734 2468.835449 2600.045654 2814.964600 3112.029541 2358.490723 1381.240356 3435.563477 1182.690063 2656.812500 1774.758789 1648.994019 1310.270752 1977.479492 1441.105835 2071.624268 3285.811523 1938.414307 1418.751953 871.313904 2316.767578 1462.114746 1623.979736 2674.691650 2382.673340 2121.446533 1465.231812 1594.081177 1463.407593 1171.081665 1982.097168 2395.177979 2071.065430 1439.160400 1618.863892 996.075745 2635.342041 2860.799561 1300.882690 2125.936523 837.158936 1522.080444 1231.640381 2878.938232 861.733521 1189.559448 3053.999023 
conv_10_param_0 441.221436 131.831787 189.425629 286.703339 271.281616 89.148605 248.905807 193.713486 345.324951 392.006561 151.491776 149.063690 191.203079 248.227158 281.829651 88.237320 262.250336 331.158875 154.839905 281.555450 136.090118 265.450012 144.934006 201.316254 288.886810 229.838791 103.790558 132.409225 197.653610 243.131638 371.099823 157.550659 389.649780 786.855164 275.741760 533.696106 337.162140 307.355988 532.384766 477.007141 600.212158 341.593414 552.380981 423.892487 425.016357 426.442871 480.694702 237.720734 571.180664 619.963196 408.008362 261.567596 558.309937 509.407990 343.031799 636.641968 263.961456 381.919373 344.668915 366.099854 263.627075 512.846008 442.202972 354.383484 
conv_11_param_0 99.410797 62.896568 161.233459 123.956245 52.886002 81.460854 135.390091 95.162819 38.540905 112.879143 80.966362 135.365387 53.813595 90.039635 82.842255 64.318115 
conv_12_param_0 64.072037 89.327591 36.711823 67.366241 80.168724 59.347504 80.386223 87.306015 61.531715 79.821892 72.728683 43.632294 74.116371 129.224014 80.716675 54.196754 79.090942 52.930622 118.212624 72.514549 53.945366 106.749786 69.808693 93.759438 95.010742 49.970478 74.928894 83.810364 40.737747 61.774879 71.796417 52.754890 
conv_13_param_0 255.578583 350.403717 250.997116 339.372894 339.390381 343.541504 148.008942 227.161011 173.414505 223.962433 270.092377 221.943893 338.285004 382.823090 277.141815 279.446533 215.545792 239.887222 173.313599 221.929001 190.298431 430.811279 277.308258 626.351196 349.508698 291.567017 259.918701 242.737900 242.453201 269.223877 188.189468 169.210495 211.845428 334.248749 320.821381 317.307495 274.926666 274.004120 131.480240 331.237335 286.443451 472.422211 436.585052 458.035736 300.183685 283.938721 378.921661 209.069427 303.652008 293.905731 235.561356 250.844162 243.661774 235.453384 351.107117 265.855927 222.500137 339.297424 197.642792 334.717590 440.330353 351.130707 266.316315 240.425354 428.800232 321.446503 123.657494 236.396133 449.818817 457.402313 258.456604 179.863571 185.828583 322.030853 335.978699 260.040771 150.471146 226.205872 197.735626 193.676239 428.333801 274.271057 321.589233 320.267883 479.757721 282.607666 144.943878 344.577637 321.241150 222.853271 268.441193 527.499268 291.255096 250.012985 297.056549 242.668365 220.496552 273.370056 187.710526 267.487762 433.387054 190.581207 188.613617 438.675232 358.342651 286.751312 181.616211 230.816666 325.408630 295.982605 214.125320 245.259842 261.470581 221.627228 301.584106 210.104080 208.534225 243.616669 337.999756 190.294235 248.323318 303.925873 183.883270 239.402176 393.327362 233.887451 173.285812 205.597900 
conv_14_param_0 501.536163 1006.410522 899.153625 525.561768 599.688843 584.814514 902.025879 489.389771 803.725037 825.220947 1232.526367 1370.781372 1105.772949 886.882080 677.750366 1412.942993 731.994812 1190.979126 725.397766 814.093140 2009.439575 1027.254883 1225.963989 890.347778 1010.472290 1194.853516 757.092102 649.655884 2094.858887 1017.304138 825.146545 662.880310 709.750916 920.496826 929.882690 867.453979 849.268005 739.082886 946.010742 1114.555664 925.021423 985.563599 803.238159 1406.208862 944.573364 2133.130859 858.120361 1066.610107 936.390503 686.023560 972.074097 2211.582275 1145.062500 989.252930 899.013977 690.159912 1263.357300 701.051941 2063.672119 528.538147 773.620117 690.612366 1157.636719 1564.444458 725.246277 755.295898 699.863220 1226.220093 712.404541 869.053284 375.005859 396.887268 793.422302 621.333435 1104.090454 1137.462402 1200.929077 754.959534 1189.406616 568.343933 737.834839 850.720032 1257.624878 993.580933 1278.750122 1428.102295 1076.578613 1034.847656 1361.753418 749.573181 876.354065 1452.758301 1022.560730 830.159302 717.022949 2399.454590 1723.234863 1197.034790 951.430054 1276.851440 640.624023 718.712708 714.687500 679.199158 1221.069458 1428.478271 791.076538 493.533020 275.362030 911.885193 863.647461 1571.840088 605.507568 788.819885 1016.665527 1350.240479 909.669800 791.640686 756.327209 789.561707 932.699158 1086.877075 955.756958 1398.887085 799.641968 706.682617 1006.870789 596.117004 
conv_15_param_0 380.090057 715.753357 205.074203 310.915314 350.613556 319.892609 331.334198 364.626343 236.093979 244.990372 298.784668 372.330444 343.192017 212.929764 325.893768 411.924347 372.609009 325.906677 470.826477 415.435181 294.289337 600.901367 501.145813 357.023376 358.921051 257.860535 368.564026 282.943451 568.991760 285.946198 274.126556 207.575699 185.552109 342.711273 356.892670 259.157745 738.565918 559.315857 312.388794 274.470245 312.393311 191.299637 390.204102 246.482132 235.035202 445.058838 322.535858 368.453979 526.881348 382.949799 227.516602 421.220459 556.046265 419.882263 260.654327 400.023132 238.704147 148.981567 378.176361 289.729553 296.511078 324.885620 328.234894 279.030975 473.163513 544.104126 449.163940 676.611145 645.911072 638.448914 222.409348 532.294617 271.498993 413.351715 374.302246 512.386047 806.663513 368.311676 604.054321 332.441895 227.619507 473.667297 158.799850 474.976471 809.678345 259.559052 962.325684 495.452850 581.519653 257.030090 270.497345 242.840683 464.723328 542.878296 558.497437 308.494202 178.519455 431.354950 636.493835 381.314911 274.840179 280.370178 330.791077 225.889465 529.283325 345.879364 420.176208 454.059448 581.760681 201.416565 385.176361 623.482849 413.850098 176.302383 487.445831 367.585052 327.762177 397.349426 499.207367 474.595978 451.295654 478.131958 828.057800 293.358826 418.468445 441.694183 224.493546 416.369659 
conv_16_param_0 352.471100 637.870911 344.663696 318.082703 498.050690 689.538879 390.881012 455.072144 250.642441 299.647125 346.500671 283.614838 333.866882 193.577957 356.593201 467.614746 462.013947 560.598755 375.276001 876.073669 322.283386 440.465729 433.182129 359.659546 386.868347 634.120178 336.549744 451.994171 345.496887 638.746216 363.502686 938.620850 
conv_17_param_0 73.203064 101.977776 51.925400 80.954193 90.931870 57.212845 73.785393 64.568916 51.302330 76.089516 65.666458 86.196434 63.497009 81.926559 58.488884 62.699982 61.339298 43.251724 88.769249 105.204582 24.747375 84.545204 74.502563 95.820572 60.079632 79.455307 54.184429 77.282875 64.082527 76.189919 96.436043 60.321117 
conv_18_param_0 118.476997 101.739761 117.634392 62.711407 208.842590 180.710541 192.268738 69.118858 88.918129 123.603737 199.067719 150.688522 94.831978 90.161346 124.785400 168.691238 238.164307 107.330429 178.286133 119.034981 119.040520 145.528397 100.328293 181.581482 120.095993 179.066559 58.606293 128.026794 144.914032 156.385391 124.818665 141.460648 
conv_19_param_0 202.147278 88.859779 94.498901 184.017929 92.658958 82.011002 160.356918 147.687637 143.015823 281.706451 118.834473 91.506676 128.365280 69.481880 121.192268 111.939705 75.124100 89.340958 181.244965 98.138901 191.591614 121.204582 168.552063 82.348061 185.746399 110.061569 137.457428 234.516953 208.806931 127.489090 90.119362 176.095154 
conv_20_param_0 61.221066 83.746918 64.744087 36.148003 95.234528 110.385849 68.700607 94.331001 76.424973 81.465240 97.347961 97.972992 64.377518 90.788185 84.206985 73.874229 57.270149 59.168186 151.756287 55.090092 106.642616 67.890289 93.027374 95.533913 89.605309 90.777939 57.412392 75.453911 79.846062 100.279129 76.009048 71.651108 
conv_21_param_0 155.383896 313.976929 56.927860 265.978516 219.450195 160.090530 135.216904 153.070648 154.844223 266.900604 95.775230 203.415009 325.184814 65.759926 238.443375 308.147308 201.732803 234.398514 195.704529 286.735107 198.871094 82.471054 240.043655 83.819313 301.542969 207.537704 238.296097 151.356995 114.479759 124.022591 282.424835 117.679276 
conv_22_param_0 452.154358 186.275482 567.806458 365.268463 639.983398 341.502411 413.754364 452.256531 393.128784 349.842041 701.412903 312.254913 546.227722 386.206879 234.354126 364.180267 437.899506 363.242981 453.686707 321.091370 558.714539 321.989227 397.861938 312.761230 530.667786 262.983826 387.237366 680.232422 159.988876 341.842865 219.579468 315.639801 329.225189 411.872345 446.937744 514.197510 448.319275 182.696365 421.166046 335.159332 456.283234 249.167023 238.393539 295.697327 301.877686 278.365662 541.298157 325.818878 403.073975 310.921082 289.138947 304.511658 287.359894 301.292023 367.739288 320.772430 376.208313 429.913483 313.791443 356.098389 309.808411 737.843567 173.762604 264.102875 
conv_23_param_0 348.446411 322.199341 862.537109 433.149414 307.013031 623.422729 713.830750 393.806183 604.134155 461.803253 285.067810 575.871216 355.768951 358.148163 453.942444 872.052795 559.717529 338.274475 389.131042 469.891785 305.583282 408.866486 445.032745 412.942383 498.272797 562.809326 474.144104 940.361023 378.854950 423.491333 614.959229 705.873962 269.825623 762.253418 1008.469482 832.052246 420.131836 407.658447 691.622681 620.387573 334.432495 1223.295898 523.921570 330.831390 589.120361 678.325745 1178.178467 539.502808 799.392456 675.712036 967.692566 1039.593384 313.495728 403.467499 331.879700 495.926056 516.625122 376.502075 209.532974 439.917206 806.540466 275.782471 547.496155 292.965088 404.269867 446.580414 349.275665 429.924652 780.544373 472.749634 572.047180 220.774475 775.822327 171.672684 1012.486389 404.962738 340.110382 984.676941 573.289673 346.277527 622.930359 1132.056152 324.701385 611.384827 284.334045 623.150635 424.803711 539.613831 353.748810 355.773956 1042.059814 457.279846 494.001526 454.157440 381.664093 426.156281 466.511047 361.235413 419.852814 488.473419 511.263275 285.258484 437.365784 428.035461 491.239105 334.050995 446.626801 560.522217 503.743713 866.763672 384.691132 862.701843 573.529724 421.371521 287.089478 432.717346 457.735077 687.528564 444.690216 546.965088 625.867554 538.563965 611.613586 892.832458 324.661255 656.135315 276.824127 513.830383 
conv_24_param_0 1171.845093 1248.031616 439.395599 1377.841187 1350.101929 1393.021973 2211.917480 1243.053223 1860.146240 822.812256 1410.899170 1383.244629 1154.543945 1475.823975 710.859558 692.565735 811.040283 1551.991089 1932.491699 938.794556 1203.054321 858.944031 726.901917 1180.841553 353.952362 847.778015 910.006165 1210.144287 1269.355591 1559.406860 604.554504 1209.188110 1976.443970 1772.380737 1019.492310 835.078857 1313.198486 1043.084717 1516.630249 1755.708984 2084.529297 988.202759 1104.966675 1290.575806 1874.723022 1484.653076 1410.814453 902.864868 332.978790 901.788391 716.630066 1246.246338 1252.014771 2618.328125 1629.584717 627.882629 1066.493042 543.996582 1509.770508 1035.793579 954.046326 878.312439 1246.334351 2091.642090 1413.399658 1594.690796 1189.153931 1130.192383 1070.224243 1117.259277 1391.009888 1603.386230 1013.720642 1176.160767 1009.808105 962.885498 1088.815308 447.170929 1057.213623 346.787903 1417.310913 1236.880737 1520.799683 1462.085205 1997.538086 404.113586 1576.540894 558.785095 786.379211 725.999207 2652.141602 860.500610 1102.271118 935.954468 727.309814 1452.161865 1122.057617 894.596252 737.771545 968.171326 1172.640625 678.739502 1136.253052 1055.592773 1074.368652 1573.194336 1169.577515 978.955750 1237.115479 1366.394531 892.095825 798.976440 1122.057983 1027.837646 1029.973877 1264.699097 1118.826660 1292.824219 744.509644 1183.447754 752.334106 1674.336670 1018.091980 930.538147 1045.707397 1187.884766 1228.062866 1027.488403 440.114258 864.137512 670.183044 915.985535 919.494812 707.135986 1391.464355 858.851074 1123.058472 1459.016968 1460.669312 824.359375 439.928864 644.725281 623.980042 957.786621 1311.421997 1509.789062 442.592346 770.652039 1625.164429 1603.311890 1522.235718 1229.675659 989.619141 1370.465454 1141.947510 1144.675049 848.791504 1134.481079 1572.981812 381.882996 1124.866089 1186.101562 831.780518 1019.329102 1501.521729 1228.465332 2350.537598 854.231873 1881.372437 708.533020 784.730164 2332.967529 848.829956 1166.635986 1261.141724 978.279968 1125.516968 2000.270020 598.899231 1383.104126 582.293457 1162.719116 1836.985474 1337.371094 1448.577271 2176.381592 1015.990540 844.344788 1405.900635 2077.973877 1120.037964 1104.735107 2295.984131 1375.528564 1837.668823 904.185547 1251.975830 414.826599 994.618896 1077.111816 1119.057739 1458.048340 1387.866089 1489.749390 1111.514893 985.525635 1189.406250 772.506165 527.229492 1454.464722 1149.542725 1303.346313 1136.706665 1537.544312 736.169189 952.622192 1805.824829 1198.451904 749.722839 512.267334 651.197205 1092.236572 805.630615 2288.546143 1023.155823 1655.337891 1275.421143 1055.006714 2082.141357 2260.964600 1032.609863 1236.105103 1244.616211 2270.353271 1660.467163 1698.788940 1396.806152 1031.910522 1037.768799 1151.449829 1257.644165 1630.472656 1191.603516 845.868286 1281.930908 2235.398926 523.782532 1426.247192 1225.671387 1060.091553 1020.761841 754.364502 1475.493408 1073.710083 1181.246704 1449.767578 
conv_25_param_0 440.915070 263.938812 495.897919 461.438507 462.256958 688.889832 605.171143 546.499268 753.524841 440.773773 429.693207 489.059814 613.773987 1102.389404 495.240570 568.556274 421.255432 523.340698 423.895416 456.295532 440.737183 335.194092 501.217377 349.690979 558.038391 659.060974 734.701172 553.016663 366.582947 612.153931 548.332275 250.381958 588.348877 318.430237 727.637451 692.838806 661.787903 432.810272 545.592224 482.668915 740.897217 632.098633 548.481445 404.855011 460.745087 264.156769 627.557129 438.001129 354.064301 1472.170410 384.593872 740.379517 439.964752 705.758240 632.690369 677.966553 382.898865 727.741516 524.224548 438.630951 554.700073 814.223633 689.985046 695.312927 1428.953003 498.530151 523.418091 728.945129 375.142059 404.821075 383.649078 197.323639 361.308960 568.901245 603.690308 304.255524 799.146301 630.065002 409.956635 666.506226 838.454529 662.635193 420.403687 556.109375 273.028290 636.334534 619.490479 428.872681 826.485657 529.282776 924.251648 942.798401 723.450195 552.890503 742.015503 403.490875 563.065002 966.628540 453.711517 447.252319 445.040833 273.160278 449.308685 529.675598 397.532135 560.635620 298.334778 539.606934 645.632080 452.320038 355.862762 408.776733 502.886200 440.332306 294.505646 519.930298 412.316559 425.757751 421.693176 601.440735 503.957031 268.649872 664.483276 880.347778 508.196198 560.453064 487.534119 1054.473145 479.667572 616.945129 633.014771 274.433716 384.951569 359.698517 720.507141 465.556854 1010.938660 898.608643 524.597229 670.244263 510.115601 1159.540527 963.909485 699.503906 525.896301 518.893555 488.779266 607.879517 420.408264 505.073700 498.922607 626.452637 876.341309 470.604889 349.347107 397.147064 989.210144 575.163452 307.331451 389.689423 485.711090 798.650024 488.122314 631.791016 828.749512 785.496521 740.996277 486.208832 385.394043 739.413818 903.098572 438.507050 286.913269 423.840179 485.680969 655.999390 524.694275 378.140350 483.972290 808.538513 430.950043 273.645538 316.744507 1015.875610 328.721680 343.550079 926.088379 396.335632 474.608276 707.505554 475.764893 354.050262 469.695862 612.577698 542.778442 566.613403 374.256866 387.750275 485.884583 458.964111 455.159912 617.073914 714.781372 648.202576 446.085602 526.346191 456.849182 557.835632 412.365967 495.854675 549.729675 624.293945 406.992645 655.680237 557.487366 853.381836 365.843140 601.244934 365.805664 831.682556 746.160217 532.416138 564.226746 684.707092 637.307495 291.394806 558.311279 334.882202 461.020782 1044.277100 400.634521 344.234406 914.798218 170.912918 915.586121 1089.664307 641.554749 403.053253 706.218750 605.966370 702.538025 515.914856 716.609924 676.878906 535.056824 703.925354 242.628799 550.842957 887.675781 259.678253 617.893738 1090.653076 1328.474243 511.867798 590.454895 590.683411 
conv_26_param_0 721.375061 1280.892578 726.729370 429.086060 599.028809 329.434631 524.371521 468.452362 597.003479 988.677124 332.611420 637.403381 552.060425 475.925110 629.480225 736.610718 822.727905 991.064270 638.315491 258.531403 673.385925 297.817535 326.140442 594.318359 485.410004 273.044647 1448.078369 268.881622 658.085205 1015.057373 493.113617 232.206863 826.729858 816.745117 358.014893 796.513550 799.359009 965.679382 212.818329 425.725830 1048.195435 612.447205 194.105240 387.936768 375.711060 518.103271 506.214630 245.180435 258.085083 578.154236 406.971741 836.237122 956.641541 1120.970947 700.342651 376.777771 699.732666 1140.334595 436.639587 1099.778687 237.746704 551.440552 421.458160 457.429749 
conv_27_param_0 170.712463 98.792686 93.868187 151.554413 102.279312 101.070229 77.225792 171.720627 179.289780 105.048744 244.592056 91.312462 128.015381 77.474350 71.679237 120.846550 70.277420 105.762070 132.774612 123.562172 78.682899 135.940720 117.431664 107.965126 81.651115 75.289742 109.341507 90.307434 98.102386 117.035652 118.507301 132.802307 85.314293 68.083519 104.035866 82.943962 107.658379 96.863228 39.081287 155.446747 82.137238 150.744888 44.275810 147.742081 93.139206 112.644493 175.519867 129.054337 138.539413 84.236938 34.610863 38.412827 117.408447 91.974228 149.200760 167.569977 92.949181 92.444908 68.525307 114.311203 52.081089 139.397995 95.219315 155.189545 
conv_28_param_0 264.641357 169.466476 255.864594 187.723007 432.941162 293.857483 173.534668 119.652458 300.258453 181.814804 191.597809 161.004288 280.937073 294.556488 182.003693 254.326706 265.020264 70.560959 277.719727 196.913071 325.390930 260.025452 219.739441 276.093536 207.002899 158.155121 100.446381 186.165710 290.343536 270.927368 192.969116 224.970322 270.365936 212.530548 305.255768 243.240799 165.872391 347.696747 123.126228 205.795151 238.581467 231.514862 232.936844 210.350327 59.402729 307.881042 338.042755 76.664314 207.566681 260.046722 296.068726 77.764572 251.139694 322.238708 272.774323 148.863419 134.148544 147.644989 141.463806 192.284622 204.772308 335.531860 131.662613 245.268127 
conv_29_param_0 242.030579 130.844009 486.947662 279.276398 441.486572 309.598938 337.272003 284.361908 229.516129 271.574341 155.289825 315.900208 362.645355 259.809235 313.838928 301.598022 246.329437 383.764648 390.353302 370.163483 377.568451 269.635986 419.956329 310.534851 283.488800 349.189911 206.997910 263.152893 829.941772 202.410904 385.340729 431.546814 279.604645 534.603455 356.298401 490.014069 427.582214 236.472137 350.008545 388.358398 327.767456 223.802292 335.507660 357.457245 488.177490 376.265015 249.913727 502.345703 315.010132 174.592468 210.765198 718.727844 401.621033 383.066040 338.125458 214.598877 284.321136 187.048264 327.864685 360.544617 134.616333 210.264832 276.343719 376.064911 
conv_30_param_0 230.966003 292.839966 161.312271 200.057663 152.703308 189.816101 103.246864 312.974365 191.367004 214.824387 173.572754 195.833954 115.060074 301.631470 355.347595 162.849625 224.731216 65.197365 317.905304 89.178963 197.270676 271.830505 194.226349 203.174683 232.172165 178.499344 42.712749 160.729828 235.531387 177.171448 219.314056 260.809448 256.293732 394.250519 131.285034 330.035797 277.590057 155.091797 159.464111 191.009811 227.974106 302.034241 159.665512 270.619446 42.946800 327.377289 182.736877 56.023529 110.109489 186.619507 117.710335 106.017639 156.286575 288.610474 85.309082 118.965233 263.468048 125.277832 147.754684 177.414093 210.885742 356.782104 175.999023 269.692261 
conv_31_param_0 165.861725 245.051224 214.571793 237.326614 234.648788 221.411407 222.236038 206.582031 258.169952 236.261658 159.134399 184.414749 188.125839 268.126740 247.164261 113.652176 292.380493 212.500015 252.046356 329.832123 350.021942 257.800476 301.419403 290.939423 262.007233 208.660400 347.459045 310.373505 258.192291 260.234650 195.854401 258.347565 252.368988 171.078796 286.313538 279.179352 218.678955 148.366165 240.661667 255.931671 205.469025 271.623016 174.104034 206.883881 184.332916 182.096222 220.581879 213.315292 303.209473 177.010895 238.912781 249.752808 313.419403 269.609009 285.307190 144.963654 265.922638 319.044434 172.668320 183.026917 212.400925 240.767441 214.115036 241.417694 
conv_32_param_0 656.091919 626.813354 485.632202 967.117065 729.845825 1038.116333 1211.935303 562.600952 541.747864 901.618896 746.173950 647.480469 276.770203 553.267395 757.327576 880.609375 680.386353 643.025757 610.440186 835.865234 570.351318 621.716675 487.606873 1025.599243 1008.998596 796.626282 649.775208 1014.286682 783.411011 555.295410 611.353882 651.676331 890.695312 402.033203 556.261536 865.205383 548.331970 773.510864 1497.329346 739.902771 1005.537903 888.945740 759.735474 805.172058 1022.651428 617.032532 809.547424 679.780884 1042.808105 681.939209 717.557678 838.348145 684.554749 676.715515 952.958984 728.742798 566.023438 950.160278 1230.217651 671.640259 474.316833 493.674774 829.402588 729.487549 477.280731 720.278687 753.180542 628.435425 432.242554 654.761353 661.366577 1188.601440 486.531311 949.273743 690.513733 254.312973 899.393921 775.217712 676.988342 881.935913 762.556152 761.668335 797.744812 394.535583 643.349365 761.421509 598.663940 775.496033 292.142426 976.403015 910.650146 773.888367 682.262695 662.714478 675.620911 896.956848 691.367310 948.814697 272.271149 447.532898 842.883301 697.146484 724.188293 808.326721 805.689880 538.040649 459.884979 689.163452 535.038086 762.978760 632.073730 1148.699585 391.439209 888.384399 368.754211 796.218140 795.074036 749.933838 617.599243 325.795349 631.753235 448.561707 733.510803 1150.729370 908.915283 655.348938 685.604858 655.488525 
conv_33_param_0 905.804932 533.600220 756.656738 645.132874 628.937378 613.465149 972.657837 1515.650146 1927.959351 1490.788452 721.061462 753.171936 1363.056030 697.881226 1331.483276 777.998047 733.042542 1012.523804 1560.049805 1028.510376 704.045105 841.000122 751.769043 404.684692 547.593811 700.527954 1457.375366 1222.941528 1352.366699 788.306580 640.015869 656.217285 607.706787 683.159973 853.697571 1591.428467 1081.646484 1865.759277 688.745667 364.452026 519.817810 863.180908 843.977844 451.054932 727.948364 523.817139 419.722382 887.546326 1374.634399 748.461121 879.251404 959.090027 1132.285034 1093.335449 1008.434265 290.883514 853.777222 1463.931763 672.473328 839.340271 731.773621 1087.821777 699.293823 619.234497 1171.561157 1202.359619 1421.495117 904.288208 4390.594238 812.343079 1261.663452 1592.164062 659.414368 1019.212280 1028.261475 309.449738 532.279358 643.492737 1276.629639 703.233826 883.319153 779.552002 915.943176 1449.257690 1344.389160 705.981262 685.616333 785.051208 742.217529 1090.076782 1017.501282 1304.298462 748.637268 295.811035 1242.251465 883.961182 755.635803 1559.259277 994.159119 961.507629 798.104736 867.567566 874.380432 518.020081 764.478210 480.811218 1186.672852 1022.635986 437.465027 946.677368 571.006653 783.051880 1356.789673 696.970764 899.490906 1095.717896 980.974243 734.313599 701.011719 904.885071 698.653625 701.195374 1007.242126 1387.662964 673.112000 634.474426 545.411621 822.293762 1240.718628 704.813843 2318.569092 450.206390 1286.248535 1014.872314 703.135437 1486.527954 758.664124 703.677429 236.470886 722.069458 902.222412 319.817963 2344.658691 1072.645752 1708.081177 2251.018311 1192.028198 1434.981079 377.462036 1871.742065 739.946411 779.262695 882.239380 1059.173584 928.222778 1019.672668 772.178528 568.139404 617.163391 1993.635986 669.469299 1731.303711 896.763672 1740.319336 755.435364 1049.862671 806.392090 830.281677 723.395874 724.678833 893.013611 984.793091 223.794098 969.820129 866.019104 716.458496 893.943542 1597.021606 697.085388 2056.794434 678.800537 758.531982 3048.791260 903.390320 812.193298 758.339355 983.621765 783.326721 936.100525 658.727539 1058.015137 1198.659668 890.659851 1961.133545 1458.242310 974.977905 915.844971 751.704773 1283.719360 1154.035645 1513.615601 884.182800 795.814087 686.102600 519.623108 835.820190 680.156738 2286.871338 769.110107 1276.479614 777.695374 962.324768 933.890930 956.990845 1495.122314 740.427795 991.299561 1477.748657 772.987000 646.885010 852.100891 1550.467407 556.536743 671.366577 1516.515625 709.871033 826.971191 276.450653 571.213501 780.720642 933.328003 1295.480591 722.255493 921.364624 678.064026 859.370300 855.251404 683.326233 915.868591 915.866516 867.709656 1598.141235 1059.275513 708.592896 1017.684998 492.724487 898.596863 941.357361 630.192749 624.430298 1338.829102 568.266785 520.179504 654.900208 516.598755 960.747498 
conv_34_param_0 384.098511 348.514130 348.215759 368.307556 225.206100 230.971786 376.777222 260.068573 359.193542 404.251434 337.247345 448.420380 360.615997 402.686035 306.873718 315.378998 506.145782 361.121674 215.257462 305.861053 314.440308 299.651825 275.352478 288.121429 403.218201 211.987762 408.433929 186.718277 275.033966 212.623413 145.900116 266.062653 364.365509 181.503067 219.236786 440.498077 263.443237 235.263260 244.798660 310.407837 451.740143 190.550507 215.320618 427.067932 307.165497 296.376587 352.440796 264.239716 308.459717 233.100357 262.561676 298.346741 362.536407 179.320724 293.091644 302.656433 356.334564 267.242340 399.102142 362.105133 269.006866 282.971100 359.241852 332.690399 314.990967 122.561897 354.683350 219.386566 219.787231 111.301682 210.200363 102.572289 396.210022 291.805725 266.110840 355.509796 426.315430 277.780457 326.972351 209.613571 393.048309 621.375183 355.074982 198.198059 210.450745 96.139923 319.843994 385.769318 311.991699 247.620346 711.521057 236.109375 263.275208 104.890907 260.205109 227.818939 316.810791 184.213501 233.826660 298.158234 304.343445 276.663086 357.792999 314.333588 296.350555 351.270203 323.900024 323.052856 444.054688 521.408875 389.617340 270.661102 327.760986 444.251709 249.014786 303.447723 540.900940 264.953094 239.573837 426.653442 262.511902 377.553406 348.027100 372.390259 284.493805 284.870300 297.905182 220.637634 
conv_35_param_0 937.037598 1900.801636 1196.139771 403.240112 2416.796143 1435.525024 1875.778687 588.657227 3184.895264 1179.794800 1583.767700 1324.307983 1729.409302 1434.030396 1136.521118 1441.818848 827.973694 2230.209717 1313.941528 1831.089600 1183.304443 1778.208984 1773.909180 1410.087036 2523.020996 1308.028809 996.752808 1822.370605 1627.828125 1172.861206 1249.595825 1526.344727 1222.924805 3077.481445 1692.462891 2481.010254 1769.108032 1635.380981 1250.646606 690.567322 1154.098267 1310.487549 1529.256714 985.014709 701.784790 742.064087 1829.823730 1088.599976 1993.015015 1070.310669 1517.999268 1168.644165 1101.929688 1980.780884 1374.777100 974.300354 1390.187866 1649.544922 1247.752686 1350.866577 1178.752075 2069.861816 1032.669434 2890.237793 1621.948242 3307.372070 1379.719727 1457.587646 361.761017 899.085632 1849.532593 1596.520752 1362.418823 1550.128662 1798.169800 1318.926880 1453.330811 1587.719482 1566.859253 1525.562500 2110.608398 963.774536 2196.383545 1404.427734 2291.225098 1320.049561 1969.891602 2409.975830 658.964600 1073.305054 814.461609 2250.347900 749.676392 1746.446655 1967.014648 1428.495117 1834.127563 940.605530 879.242065 1132.408447 1728.874146 1471.044922 2173.624756 1033.708496 1729.433838 438.901733 2432.366455 1578.602051 4960.470703 1181.864014 1683.119019 1336.012085 1673.125000 1775.869263 1026.170898 1582.202759 2811.242432 858.902405 1182.304199 1621.836914 3811.376953 1641.545288 1613.400146 1737.794189 1449.629761 1405.651001 1535.887817 862.688477 1404.214478 1624.951050 1815.125000 839.050964 694.651733 2189.356934 1974.421143 1768.950195 1572.768066 2098.917236 826.712280 2578.708252 2389.514893 604.065796 2636.148438 1497.290161 1853.383545 648.215576 1223.689453 1946.298340 1326.761719 1876.212524 1012.311523 1427.118530 1447.401978 2131.273926 1367.345337 1359.655884 1483.314453 2093.193115 2262.010010 2306.762207 1516.706787 1786.962158 1202.304688 1774.758301 1280.596924 1710.486450 1319.835938 988.625610 1537.549438 1191.098267 1971.989380 1497.136597 2092.256348 2019.353760 2052.095459 957.001587 1004.873047 2048.631836 1013.622498 1614.007202 3735.642334 1455.000854 1501.846924 1763.193481 2351.443604 994.700989 2072.077637 881.443542 1138.867432 1911.335938 1331.541870 3060.345215 1524.309814 2196.836670 1650.987671 1606.720703 1169.819946 1433.740234 2605.591797 1328.254150 1776.012573 1374.344482 2053.554688 2636.261230 1138.099487 1252.244141 1635.342407 1726.279907 1297.047241 1899.421265 1544.843872 1285.464966 2066.233887 864.278076 1598.665405 1683.284668 1786.527222 2044.500366 1808.184814 1168.376953 2342.316162 1427.968628 2045.677368 1240.323486 2718.333496 1873.622925 1264.906006 1659.025024 523.206787 2386.159912 2110.113525 1612.412109 1788.707397 1612.285645 1679.586548 1518.601196 1456.274292 1175.498901 1864.162842 1229.296021 1045.992188 903.984619 1611.272217 1315.858521 1368.122070 1380.148315 1159.358032 2236.595459 1595.622070 1816.609253 791.221985 1782.489136 1800.344604 885.880554 1364.509277 1432.267578 
conv_36_param_0 255.199875 342.793274 197.137604 240.789948 311.649353 248.109970 154.619324 216.839615 283.548035 283.367859 232.004303 235.449814 182.203461 212.438828 242.854095 208.629349 300.724976 187.793411 242.768799 266.316010 301.282837 246.368362 274.462830 240.680450 177.371872 196.816910 241.103149 299.927673 234.911667 197.756516 300.108826 190.978531 331.763123 268.390717 197.752060 236.548843 201.357971 229.344589 245.188385 272.875702 279.919403 268.218323 253.387878 188.738144 201.624680 230.518997 279.788483 296.684814 355.719727 227.650421 248.488266 296.591309 332.069122 219.272339 242.398376 259.798523 284.751465 258.369110 235.506577 328.313690 287.988434 334.320831 188.875931 176.044189 191.035828 279.860626 262.236023 274.180267 224.802414 300.237701 179.512375 258.465790 326.202240 305.432312 286.577423 174.996490 353.865967 286.869263 201.478119 271.915741 305.406311 171.952408 261.363373 292.526733 180.217514 253.760025 311.901917 199.351440 228.997986 258.682953 117.194656 248.972061 169.163284 277.481812 210.791977 239.252960 181.261047 145.546555 259.700897 199.318573 260.557220 283.837036 226.523880 210.297577 312.138519 240.788620 196.763611 187.663712 273.718445 211.735580 200.576248 251.875076 243.383392 281.687592 275.324158 213.120422 282.387512 290.162109 282.161041 277.522125 325.981476 277.899567 319.777496 191.066513 274.757111 295.352570 276.376678 188.128815 348.686157 445.880798 318.742035 247.672058 461.459991 311.429840 375.881165 364.018768 359.368683 348.963959 668.694946 560.319397 494.845673 396.499329 183.766296 290.072968 189.809830 306.457947 391.491211 221.893463 242.723663 293.576324 646.070068 89.948830 558.248352 236.335175 354.743835 225.107574 272.370453 380.369080 509.049438 472.265106 229.138321 199.166122 712.867737 347.463043 382.700562 202.101028 616.933594 109.309731 162.584549 267.786133 273.714966 292.775116 494.543579 380.736938 261.278320 181.414337 345.416321 194.135239 437.563812 181.368378 292.630280 235.720871 441.337219 529.132263 508.018158 650.614746 292.850403 376.984070 178.631470 178.856094 408.541809 191.336563 166.430649 240.414749 298.068756 232.917953 628.131348 645.709961 255.785004 761.947754 201.107376 561.823608 253.430969 355.437561 212.840591 220.354111 249.521118 160.548019 220.927505 872.136597 210.659637 349.029114 230.374985 274.299988 611.278442 221.957855 277.747101 763.369812 257.496460 707.464722 270.464905 473.148376 539.611267 293.779114 434.749420 528.548889 313.907196 296.593079 417.901367 313.530121 176.241501 339.144653 481.526093 175.902481 331.634521 601.917419 595.681824 412.434998 291.535889 395.170593 556.874207 580.442627 455.555847 230.459305 363.978516 644.564087 282.983337 629.915771 476.123322 301.482208 508.262543 433.326843 344.569000 196.863190 319.882507 315.834961 
conv_37_param_0 520.958374 1416.928101 424.707397 316.971741 555.523621 431.015350 476.698395 389.184265 279.550293 262.709808 572.095276 494.178680 630.432983 455.681427 422.449615 291.173798 390.809021 205.125259 356.476990 370.196167 386.554199 354.430908 390.083252 415.283600 361.649933 392.750061 401.582520 464.874329 570.792358 480.548828 272.864502 452.869019 517.524780 299.550354 608.770508 360.601624 360.817444 339.945496 567.496887 411.331726 277.686218 328.007080 633.561096 597.650879 505.497284 284.642120 398.769409 485.021393 377.156219 288.436310 592.569702 309.184692 410.519196 411.157318 251.303299 530.224060 396.188477 303.925995 335.403870 487.031311 434.308228 515.644592 380.868622 364.143158 233.802155 363.994690 327.795837 332.128845 274.435364 220.479919 466.965607 263.384277 263.657257 331.873199 506.322327 1021.153503 279.000305 151.407745 313.864838 349.603790 259.725586 151.878387 338.670898 334.246429 363.961395 224.698975 288.110535 259.360199 107.310120 274.888855 283.826233 255.583328 304.326569 261.514893 357.653931 226.032471 278.887207 310.332764 217.567032 284.679169 174.415512 234.323883 372.746307 251.194565 255.609924 349.442017 290.685516 178.395599 412.714874 279.720001 202.824982 303.447021 192.791489 312.984558 516.243469 351.858459 538.612732 259.340454 408.704651 391.444672 423.834106 270.868652 236.274429 251.345245 230.193222 300.168823 413.575500 332.467926 1615.097290 504.406097 448.161133 441.616821 538.832825 579.886230 537.847595 480.359833 518.801514 627.069031 475.363739 849.683472 497.860352 430.309906 660.961182 513.031738 666.096436 435.455597 842.207581 339.842010 509.417419 364.203064 877.860718 949.770142 586.934631 421.975555 477.359039 1101.186279 618.228271 1681.635254 509.808502 584.852051 453.655121 427.405609 390.869690 335.029846 539.731262 322.070862 350.121033 541.458618 693.057800 440.222870 543.082214 673.656250 951.883911 290.527985 386.169769 532.688904 664.441040 263.957977 762.638000 268.895203 687.920105 518.162415 866.811523 798.922058 405.214050 446.087097 550.754456 411.075012 869.730957 369.544159 545.319397 628.933411 663.924133 453.825012 142.256088 695.094238 200.471375 552.127563 1100.524048 242.471863 1494.993774 233.512054 357.040466 132.793365 266.889984 187.125641 262.396240 259.637177 110.820450 170.593109 256.871124 810.872742 217.200607 228.633102 208.182755 280.740234 209.268509 204.109329 199.528030 301.504730 681.005066 369.362030 272.601044 596.346130 231.559509 485.518280 168.912170 224.082291 269.135681 239.292770 214.224625 304.628326 248.196594 598.806335 134.743500 272.527435 316.175079 258.570007 349.478424 165.360825 269.377563 427.197235 233.971146 225.070953 180.994293 216.408875 1195.029419 1068.710938 532.421448 1044.118042 966.735474 182.772339 189.325180 286.287476 250.871277 248.705658 
convdw_210_param_0 563.451782 291.763611 153.297409 314.077942 251.283264 370.158752 131.109467 230.855774 507.457123 304.511749 122.406525 92.134430 226.070770 623.682922 121.327515 231.839645 299.360443 1277.505127 255.320892 317.398010 238.892960 262.187103 101.124519 279.939606 341.077606 223.467468 253.440796 244.124893 273.348816 228.636856 286.574768 449.101166 341.747772 130.110138 140.981873 411.560333 861.934326 257.325897 843.958191 166.993576 303.405853 158.822433 163.133530 220.790787 147.579132 227.139557 226.644135 106.004326 220.123627 138.673035 206.833954 551.591431 446.065277 263.510437 128.669052 151.677963 102.560143 323.268127 412.949738 435.390106 619.339172 533.745239 242.327408 207.683533 151.722534 120.804497 1425.704224 120.801567 689.581116 94.105804 61.149570 531.333862 50.433743 612.310913 872.406311 674.894409 324.710205 527.784302 639.220764 610.840698 584.576172 375.713745 375.365631 60.309364 933.010986 568.297791 1517.350708 1110.530518 567.379089 640.179810 953.079468 232.421188 197.437332 564.309753 289.022400 163.025620 479.382996 151.819809 757.613892 776.244507 842.397888 1125.409302 1164.695190 429.823669 472.205597 107.872719 356.335999 1062.421509 252.699875 644.931335 535.216675 518.073730 645.524719 227.395828 304.119904 1154.916260 661.844727 397.728699 61.638401 57.979530 89.592941 66.155434 56.290573 668.847290 1038.399170 919.215637 360.229065 963.113342 
conv_38_param_0 713.012573 432.815308 726.328918 689.233459 733.617859 515.755432 607.438599 657.916443 748.718079 417.078308 1052.478394 1388.618286 848.976929 628.977478 577.019165 651.703857 497.199219 565.527283 593.310486 710.166443 620.561157 617.257263 585.884216 205.051102 544.771851 637.407471 445.230927 579.140015 794.826965 967.894714 950.797241 692.901672 449.186157 725.940247 569.981018 514.264038 730.031006 276.322449 619.058105 180.070160 186.880142 649.793518 458.428497 362.634979 763.407349 769.084534 489.417419 615.184204 750.152710 962.868408 486.876770 912.040955 586.956726 526.996826 715.691956 833.351013 837.875549 574.456726 598.826111 688.130371 1207.226929 996.009521 635.817627 671.931580 521.358459 947.360657 808.907104 1224.444946 636.314148 803.590332 850.752380 768.896851 788.638733 849.684998 606.178955 524.156433 597.379089 637.205627 730.753662 292.164703 582.925293 619.084534 547.898621 584.701660 806.398743 476.536865 633.020752 616.584839 753.601196 606.394653 672.562317 903.289307 688.734497 583.861755 945.225464 505.208313 791.770325 590.621216 553.583069 671.392456 568.506531 846.734253 415.006134 639.531616 618.906921 404.922089 633.105896 677.611389 935.344421 519.794373 558.226196 767.081177 827.587463 657.975220 541.703857 491.031769 776.594482 968.672791 603.125305 699.800781 893.802185 815.416504 778.057861 654.679443 808.644348 791.771240 427.178619 932.595459 
conv_39_param_0 682.055969 695.007751 1051.969238 704.026672 559.201111 626.595581 1050.909912 442.422241 688.491821 608.663208 620.619629 677.820740 660.369141 709.361267 715.622070 495.154877 1104.461426 677.250671 790.893188 610.261719 1035.229736 958.322937 761.505371 890.906372 655.557556 960.897766 746.870972 728.956848 751.692261 601.887573 676.470459 784.435303 948.891357 879.518433 896.717224 493.941132 564.971863 501.071411 751.614746 696.285461 891.591064 715.260498 822.791321 473.987946 790.899719 850.630249 867.073608 683.830688 789.758362 614.109558 720.278198 860.439880 848.155334 688.942749 753.543823 1004.850037 851.765625 841.743835 990.542358 632.114197 681.358215 888.177307 994.114258 685.020630 699.149353 754.457947 922.828186 992.950745 619.995911 1095.608765 896.318237 956.212341 1050.564209 971.253113 960.627502 977.565857 696.466309 569.007935 943.238281 593.005188 1121.621826 778.575195 723.157166 1099.467407 604.926208 848.451965 721.564880 485.818787 619.484802 661.786743 864.083008 654.415283 985.746887 813.615417 994.462097 723.136780 814.585571 937.740234 903.242432 451.595947 791.976257 619.690613 816.458008 564.370361 716.451660 900.288025 889.891174 614.992493 640.003357 932.613525 849.392761 1043.996094 836.552124 928.839600 565.256042 734.941833 846.986450 953.758911 799.658569 528.939087 873.615723 511.597443 1042.988892 721.234619 906.309326 893.621216 767.833435 626.083557 434.109009 885.750549 837.756531 652.345520 678.146240 805.452271 921.582153 663.837646 1052.687988 790.925110 768.253052 661.079773 821.218323 662.538452 676.596130 705.389343 964.220459 889.027710 555.717896 844.417908 790.983337 596.659424 867.976196 819.299927 791.647583 1030.737671 598.702515 526.493958 391.629730 924.307495 878.748169 893.321472 756.471863 776.428040 437.418823 831.280823 443.692627 720.137573 632.893555 704.825745 645.222595 523.066284 760.084961 676.258972 553.766357 583.650940 1110.891113 685.103760 935.338989 794.549438 669.733643 872.892639 763.132385 571.216492 722.183899 1023.875977 592.803223 1012.187561 800.387573 940.698120 916.045349 793.760498 834.561340 559.037659 881.908081 836.553528 1158.591919 909.912903 791.044617 635.611206 692.467041 678.846069 600.699036 789.063538 1168.812012 746.089661 632.729004 788.345703 391.838196 756.286316 690.785339 738.340088 663.381348 935.855164 549.496704 862.336914 700.521606 975.680481 1101.539062 832.445618 911.235962 628.217590 837.841431 566.650208 710.775696 772.756226 1038.699829 566.014648 693.146790 876.597534 550.014343 705.029236 484.771667 624.027771 936.591431 669.203918 636.014526 637.105652 589.500854 777.065491 632.884033 532.907227 806.617554 591.444641 973.293945 823.564758 695.138672 853.118896 721.353333 706.702942 1099.225098 963.360962 917.996399 587.460876 843.637146 655.631409 972.087524 730.654358 
conv_40_param_0 124.858727 99.877632 167.239792 191.111664 162.948044 145.788452 181.157227 129.266953 153.143875 172.467636 130.733871 241.641983 206.489639 199.331390 235.263229 150.042007 173.792145 182.837952 142.191010 205.200394 188.349121 118.325562 198.697479 149.960403 154.299881 203.054672 141.496002 109.139969 187.012634 116.053986 173.294052 170.529282 141.240845 154.020782 128.659195 138.200851 195.561295 100.288155 175.140915 170.931305 186.093719 197.683029 174.313538 168.488235 139.851715 180.297363 135.197449 87.412567 121.335289 104.305466 156.847748 123.595505 163.207947 102.345627 156.892471 184.389114 135.953796 207.490723 136.220795 154.997055 151.871796 177.852676 85.467972 133.812683 209.114227 144.511795 137.357498 117.931190 146.540390 312.401093 187.472183 97.418121 146.128998 207.420120 155.327347 218.351028 146.658676 105.492813 143.770279 141.282501 108.585968 171.472519 247.918549 166.673569 139.652664 192.895233 151.298050 206.439575 203.719254 210.451721 177.843414 169.484314 165.335617 131.010498 115.463425 169.958038 187.360855 171.555710 145.867294 200.880844 90.157616 209.337280 55.685894 136.737839 128.993378 59.941067 149.425186 172.839035 271.800781 142.672882 415.652863 136.304016 234.363297 185.083237 186.373413 171.094452 192.961441 150.905548 125.778755 201.422470 158.512772 127.235779 113.327995 130.359146 206.212097 148.839600 219.785355 123.545868 
conv_41_param_0 859.580933 1287.458618 1344.714233 608.656250 572.552856 597.955261 717.076355 977.165710 2104.134521 670.783569 1090.752319 536.227295 786.797180 537.480469 981.999146 375.984924 320.479309 747.746521 598.280518 827.265259 849.081177 810.172913 458.688690 653.496643 808.615967 1401.412720 725.172729 975.132507 745.777466 1042.959106 2296.140137 606.107483 849.899536 857.984131 922.687317 631.085999 934.483093 653.369446 570.858521 661.883484 707.909241 2377.127686 748.142944 748.069519 489.101227 627.933044 600.976624 490.457916 1507.246094 382.279541 1561.671875 821.976318 1694.214966 1815.243042 811.974609 515.398010 730.521179 536.966736 553.756592 873.144714 1512.649780 918.204712 2441.616211 656.351562 680.592773 898.722534 700.023010 646.386536 2225.959961 647.587402 890.832458 928.372253 741.783997 556.536621 808.392883 956.577148 627.702454 527.526001 568.129822 758.430908 1435.352661 662.212708 1512.543091 815.996460 471.985016 1996.300781 1093.293457 564.717224 1032.314697 773.454224 1190.299194 1150.385132 1298.709106 768.060425 1585.465210 768.431641 2173.372070 828.768433 1713.823364 1003.065002 565.967468 812.698792 658.773560 1323.315430 782.696533 559.608215 650.734558 959.675537 438.748596 1294.068604 2059.775146 994.232666 559.489380 2098.223389 926.021667 890.740540 755.763916 1055.995728 458.792755 762.746460 754.340637 1017.522278 599.961487 558.840698 612.335266 859.332336 876.296814 699.482544 1417.219360 2983.524658 757.504089 1305.128906 1119.386475 703.490356 886.939453 1106.358765 568.527161 641.435425 516.575439 595.456055 1036.000732 1173.093628 1919.510010 614.696533 731.511475 917.268677 1053.260986 742.500183 1304.999512 399.569702 1069.165649 660.889404 2091.729736 552.508118 1533.520752 840.209534 602.838196 933.973572 1207.237671 945.265930 1900.001343 489.782776 640.336426 2001.595093 890.380615 1101.265747 802.906189 584.085266 1231.437622 1526.314087 1459.240112 548.798157 601.636963 714.043579 1276.365845 986.528687 2230.302246 543.219971 966.205017 549.714661 249.958115 881.604919 1087.763550 1067.601685 2523.964844 938.855591 1120.898926 737.874512 1519.252197 704.459106 1934.045410 715.271973 866.766052 519.312805 630.696411 508.901611 1794.190308 904.666199 823.787537 755.028992 811.780640 1064.444214 1508.476929 492.151947 863.143433 1562.587036 267.797058 835.576477 1504.030273 1240.002686 1194.876221 509.788361 1159.295532 1397.631470 818.836304 601.744812 634.519409 1447.201904 940.168823 484.092590 1219.038330 968.364075 1229.979370 1590.639893 3044.367188 725.418640 1620.619751 604.219116 660.318726 1642.398926 2219.132080 693.042542 291.998383 739.136353 2243.018311 879.930359 520.252563 587.184875 527.411987 700.830872 887.498047 624.734741 431.956024 913.801208 890.292053 1385.779419 915.108398 509.611572 795.338196 907.537476 1069.959717 646.493835 1701.841675 690.818909 978.766602 700.189087 
conv_42_param_0 588.275330 463.950409 452.901764 533.690430 482.022644 445.510559 587.266418 334.615173 294.276947 235.387161 303.815430 432.694092 311.298126 339.648926 248.116959 351.004242 363.399780 496.632385 352.553772 224.248840 233.170914 387.623810 441.202972 488.702362 180.657593 510.181549 254.011612 339.048798 295.190552 370.341675 277.093811 243.149368 512.493164 521.983276 241.197861 258.880890 398.431641 277.314240 321.315277 435.862091 493.798950 212.978058 494.173676 335.735138 495.426605 107.049911 339.516724 341.334686 378.010773 259.547638 470.791992 382.724030 387.731171 259.489868 429.935242 497.883453 341.490875 246.215546 603.688843 467.023193 343.561279 416.461304 269.758240 189.865509 362.336609 547.433167 347.332703 456.342255 260.670654 143.487381 399.008667 346.134552 305.321777 535.953552 440.978088 701.392944 457.976898 341.152496 255.455566 640.840637 389.360168 402.977997 368.413910 314.378723 566.322754 229.765045 818.959045 160.249969 407.073486 610.114624 365.744385 449.441742 450.025452 685.903503 292.424103 359.120178 192.372620 351.472321 224.393417 226.707550 381.786072 230.751892 113.275063 555.923950 351.368683 456.964661 259.840881 660.941162 314.669037 318.752686 339.862244 328.064514 411.850281 178.405624 189.888718 876.827271 312.939728 357.439117 441.131958 337.791077 796.490540 344.426086 358.601868 339.428101 285.539032 303.551544 258.448608 387.637421 
conv_43_param_0 347.216156 510.600098 330.129761 278.241394 311.041870 337.015442 313.445282 431.534119 504.727081 426.448212 573.530579 238.786819 249.175293 267.484131 256.758606 596.159485 392.346741 193.464874 241.290421 345.579071 235.122940 327.659424 234.327942 255.556107 433.810150 290.542847 260.658356 373.809570 310.419220 389.466644 615.106323 531.024170 
conv_44_param_0 39.834091 50.531349 94.023941 57.373482 79.678055 61.426208 66.748070 62.340687 62.109245 44.596916 62.634274 57.640362 74.238884 66.544777 82.218422 45.063698 59.331066 66.492706 88.614113 62.073627 61.463703 96.647682 76.798882 64.370049 67.125740 55.984982 57.798721 45.878025 64.181442 44.530560 105.739548 34.940983 
conv_45_param_0 95.301781 73.869751 101.120995 78.407829 115.616753 85.620880 77.259071 93.953568 132.458481 96.684128 89.843361 85.298508 66.852394 81.704231 151.680984 99.965950 56.827278 81.767471 103.888855 132.165863 89.402191 73.678246 71.965996 109.460052 76.926521 91.564774 122.131454 75.191696 72.726196 116.694489 66.053429 43.325062 
conv_46_param_0 225.895004 250.258743 239.563461 207.087875 183.284164 158.407806 170.793976 190.532257 162.337158 273.086731 179.001984 161.977585 94.586533 150.946106 251.983383 194.105789 249.183334 290.148773 149.876114 166.645966 190.832001 228.063858 152.053741 226.592941 158.888657 275.789398 187.087769 176.816162 149.973206 205.458862 171.222672 197.975601 
conv_47_param_0 54.532459 56.595058 51.380131 77.069527 59.099777 64.086082 70.643349 61.072269 49.288982 45.757027 53.236984 49.092644 51.726425 51.072063 78.495598 66.952438 76.794739 65.695015 53.541801 51.519711 52.902954 53.807343 73.547226 20.994818 61.664215 76.155853 59.991421 71.201180 56.159294 75.654350 48.903996 41.556087 
conv_48_param_0 102.679504 124.050697 120.550240 149.555405 129.793747 115.170120 128.379700 145.660721 214.603790 109.988113 140.845490 110.180580 130.113297 134.228058 121.501556 103.924408 117.044952 112.740669 148.459274 136.556610 89.625023 112.784042 100.278030 124.764282 161.661179 132.918304 103.073708 153.486755 171.456635 104.813705 138.178131 168.576675 
conv_49_param_0 423.885468 563.147522 374.714569 463.829681 639.273621 434.291534 453.076935 573.230713 263.621857 464.836395 429.551636 362.834808 387.425720 645.030701 434.458557 313.160828 397.554718 399.725616 630.507141 543.698120 471.291382 528.000061 605.291565 424.982788 521.463318 568.586182 386.410522 552.258850 364.808502 441.390808 296.108643 481.873840 307.325104 375.451874 561.829773 431.824615 548.648315 698.371521 369.662415 619.532227 470.026642 469.855316 462.411316 453.571075 491.711609 520.073914 639.808044 717.241943 521.647583 896.085205 538.948425 411.480316 562.575317 287.095123 424.206604 335.085663 461.849548 376.323425 473.172150 530.961060 435.499969 658.737244 415.658264 626.497070 
conv_50_param_0 453.396484 330.308868 354.397675 336.499878 396.963226 905.798340 309.133484 458.580383 403.063477 354.613678 388.515045 823.807190 884.937866 360.268127 373.585327 423.919739 838.455505 813.739319 237.136536 418.254486 358.245117 769.997925 793.018250 309.691956 876.395935 577.625671 452.436005 347.453339 762.114380 354.539246 396.191498 485.457001 384.939423 523.199768 412.889648 305.755341 368.401215 640.014526 449.141663 462.121307 713.975403 372.394806 789.359253 383.006256 566.139160 369.538239 400.349182 459.159088 553.261292 418.349335 412.543365 586.633789 650.594910 399.733307 404.799957 379.557922 369.484406 376.480865 909.773254 400.538086 755.688904 159.241898 575.993225 590.482910 365.123810 655.216309 528.656250 418.223450 505.870056 331.339294 577.680298 401.444794 368.348846 620.144043 345.943848 390.413269 574.708557 345.445648 782.234070 974.504456 338.915771 332.100616 199.258728 283.383362 329.130280 775.192810 908.567627 425.104065 457.235504 579.723755 398.551147 391.040344 349.603241 913.583252 1310.874756 242.872925 440.716614 310.195312 337.661774 520.168945 542.942688 697.045532 558.406738 319.766144 295.167236 204.126419 731.517944 504.117889 700.155090 477.105621 288.811157 794.475769 632.393555 1189.582642 575.321777 487.383331 263.369995 360.185730 539.329346 1125.621338 324.437988 449.005402 617.437988 535.748901 255.193298 544.723694 734.880920 409.415466 
conv_51_param_0 630.539734 526.258179 316.615967 539.068665 513.925842 383.619965 576.142273 363.539368 329.787933 423.266174 351.648926 525.617615 576.926453 423.273102 527.776428 470.442078 535.348206 427.725525 237.005524 427.292877 611.946838 623.694336 559.708191 497.891998 465.593231 358.408875 348.659058 572.325439 428.522491 308.909637 638.216370 280.409393 818.728394 422.162476 409.697388 475.386322 564.764465 234.804092 607.826294 367.987762 487.137146 771.910278 466.622864 525.723816 300.716675 371.275726 328.017090 324.727844 298.219727 409.880157 395.471558 468.292877 408.153778 396.431702 345.603241 333.207916 474.879242 230.072617 405.952301 447.249786 356.267151 432.307465 384.535645 556.426331 
conv_52_param_0 266.463715 466.761902 396.016174 625.660217 659.462830 581.902039 883.221924 439.889557 266.622009 376.077576 434.532104 551.244446 453.859955 301.020844 325.390594 381.040009 
conv_53_param_0 18.743830 18.123610 12.062119 17.233585 20.839100 16.794281 22.980803 13.286845 12.403045 16.065784 15.348426 16.011713 12.776297 16.557653 12.606058 12.000258 
conv_54_param_0 67.773880 101.196815 60.549507 61.650848 59.204693 47.442272 88.809555 56.577209 235.092087 72.402458 59.536274 50.256660 49.737705 72.195885 74.073448 62.474442 
conv_55_param_0 75.560257 128.966553 87.776611 117.202866 56.392200 63.709339 148.529816 80.277718 64.762169 86.260254 86.711136 55.198963 72.451797 268.656464 109.686226 50.578835 
conv_56_param_0 18.419325 21.011152 20.996880 24.695169 21.598858 21.293205 28.036547 19.212425 14.989419 22.043747 17.858723 27.946571 13.398789 11.567727 18.815502 27.494650 
conv_57_param_0 196.916565 94.468826 143.879395 81.673965 125.934441 136.738602 129.862671 43.390018 83.454498 112.269035 72.963249 73.276535 69.248192 110.062759 121.309746 112.439796 
conv_58_param_0 211.276794 189.791946 217.743958 372.368561 273.816467 308.231720 188.148346 425.705292 486.294006 381.246155 260.651428 215.547150 230.703217 178.682037 170.172333 355.085541 167.961777 321.946991 211.936325 186.111237 211.709473 144.090073 216.994934 263.196411 184.829712 318.209320 187.000809 313.119598 290.530151 220.636444 214.218140 473.459229 
conv_59_param_0 487.804962 104.140617 164.360001 232.149277 366.471985 234.487411 124.360382 268.719788 597.414429 307.694489 369.590424 989.560059 431.175354 823.015381 619.382874 516.871216 232.185760 737.467346 1240.963745 289.298065 281.439301 380.887848 180.268433 44.954319 274.238678 465.396606 305.326477 302.570740 578.339661 542.293396 368.938507 842.120972 205.903778 669.986450 189.346649 71.329910 295.805878 416.775635 221.031052 281.617188 524.335144 964.526978 705.972046 958.374878 280.317780 301.150604 285.637817 464.694977 227.442551 590.593567 906.935303 501.220154 250.328247 879.398682 727.401550 274.340942 686.620117 1015.743408 867.862610 227.308960 120.000183 189.554825 912.417847 653.043884 
conv_60_param_0 568.801147 416.150848 356.976685 517.296692 770.083008 472.916565 506.735474 427.447174 325.776001 476.354431 436.978882 391.528473 402.143005 571.638733 418.410309 355.235840 526.099976 847.482788 418.852997 859.029053 428.312195 497.557556 640.665710 522.864990 512.786194 422.143585 406.420105 443.421478 615.297363 1155.355225 341.195770 579.940186 687.004639 372.474762 473.962555 442.899689 1088.043945 766.000732 434.647614 387.060883 592.051392 270.484283 910.286011 886.012268 688.552002 659.452454 749.101746 437.487976 835.681274 511.695038 429.171753 320.663574 428.047180 595.410645 373.453491 752.633911 567.346619 577.035461 373.038727 560.308533 895.754883 553.824951 1032.964722 459.393311 
conv_61_param_0 261.856110 355.768188 242.425674 295.856171 401.349487 260.662018 504.505951 314.748901 292.815979 339.983826 354.697998 280.565796 290.689270 197.657852 104.934120 187.560532 252.026321 292.996490 354.178497 394.172821 240.198196 294.775330 400.589020 149.190491 340.674316 184.386780 233.025269 344.452820 306.839722 246.243881 314.206177 248.790192 504.214996 206.410995 135.239594 255.548630 193.625137 322.104828 248.593491 323.591949 305.233795 227.129822 260.159607 472.294739 308.384338 300.973541 319.433502 373.927734 206.111313 348.492615 514.514099 231.169281 343.587158 391.612396 263.750214 172.935516 354.739685 195.370605 270.922760 237.124130 158.192749 269.347260 269.516541 236.952042 319.624847 192.863052 279.700958 356.966125 178.011169 330.685913 283.068268 236.542358 249.497269 211.056427 326.409607 256.507324 294.555420 172.382431 159.650101 145.676926 309.287933 218.340714 199.230560 173.558899 210.169159 204.975052 333.236542 220.827316 341.666504 260.974548 161.321716 223.286560 191.398102 209.946487 179.604416 158.093872 226.507553 205.328751 246.348999 235.045212 249.032791 142.383163 320.634125 350.094757 254.985275 219.084854 205.197876 174.614075 117.792099 259.754303 301.122131 192.602539 194.717896 155.614365 240.511795 239.364182 337.926758 211.106125 273.561554 350.531982 312.620514 311.411652 135.779343 194.550720 254.936462 335.157898 366.581177 197.481216 
conv_62_param_0 1696.110718 702.350708 822.155090 773.460999 1027.494385 950.801575 1624.567993 561.649109 418.082672 748.872864 624.051514 1191.361938 464.363617 664.018616 494.404266 550.455444 1062.096436 565.633606 1351.552490 837.099182 506.229889 480.732269 732.406494 817.874695 835.193115 808.998352 1292.776001 675.007507 752.282715 845.638977 347.408844 467.884125 
conv_63_param_0 46.495960 32.066654 49.405663 18.868587 25.695623 24.654526 34.209202 27.109489 19.981676 29.276632 44.742783 24.015961 28.699093 20.382519 35.725956 26.526436 25.323294 23.266811 50.102703 35.144348 34.634403 27.027632 41.262444 34.931843 25.232231 26.927256 23.241522 15.861527 41.902328 37.642548 19.397429 22.233629 
conv_64_param_0 43.451183 65.376602 50.210949 45.626534 202.205017 51.527225 51.742710 106.328293 54.559181 117.488808 48.526814 220.662460 41.144581 69.007515 160.796204 64.287025 70.895874 110.292664 66.160507 62.676197 49.258610 71.606316 66.344193 55.230740 79.098480 82.937691 51.279327 82.413818 66.315910 41.939781 39.913826 51.522430 
conv_65_param_0 47.436031 85.716606 68.397102 67.543335 106.020866 73.651047 55.852806 87.110092 56.256554 54.471676 85.282310 87.928535 97.718819 89.234505 76.650047 57.256245 102.119759 71.626534 70.109428 111.202400 51.192699 71.138374 138.990997 73.062363 67.280876 59.816223 98.713989 47.510735 62.012337 65.118576 70.438774 92.788857 
conv_66_param_0 36.322983 36.485542 67.751541 42.498497 48.272141 39.392570 13.457298 29.105673 54.255985 36.526413 16.846464 81.076233 23.674744 29.636009 23.644705 32.798222 40.391888 23.487564 37.931721 11.989163 15.162437 43.281811 52.387207 80.959389 53.639656 42.193211 30.582720 36.853539 50.130848 23.925369 50.826157 57.329842 
conv_67_param_0 140.025269 321.051056 213.163239 156.474091 135.547119 158.880066 192.750504 167.638611 117.635422 141.412186 225.890350 126.493805 230.082489 295.133087 197.716354 201.400192 282.114716 133.127808 96.485474 328.268066 219.128250 191.637589 158.418701 294.791534 269.137726 235.599777 283.699158 252.314301 131.358871 145.573502 144.223007 114.864586 
conv_68_param_0 538.556030 180.545654 239.898926 164.649658 318.376740 250.288498 339.957489 427.362091 228.788254 328.592224 484.585602 393.596741 336.888428 340.810120 460.467987 333.970306 320.135773 248.105469 339.935150 425.393921 106.468224 252.900253 254.208099 369.425568 474.755280 564.819397 311.693604 372.194672 262.897400 301.408386 207.321716 394.442352 415.215851 140.693741 158.587860 466.310577 220.101974 426.870819 211.397415 313.203186 276.784454 122.036102 138.371384 201.736786 246.178299 225.883926 377.436310 258.751770 268.142792 701.788330 309.323914 360.356812 79.025612 229.404526 320.027039 348.162018 460.561676 349.194305 325.675415 169.790863 166.353363 187.009323 248.783173 314.742676 
conv_69_param_0 849.395508 281.683075 827.150696 877.981995 887.223755 671.956421 407.380402 1144.736450 410.232208 1923.199463 184.102676 1496.407104 3133.354004 885.881470 794.410095 1236.095703 774.489868 424.873169 953.468018 439.521088 1373.965210 1366.895874 300.169312 1522.436279 464.242249 1277.305054 4760.508301 799.667236 1990.021606 505.648132 391.142303 1194.400024 812.562439 282.205902 577.738464 243.347244 595.894470 279.406921 402.524567 113.793175 819.741699 600.462646 427.903778 675.680054 1019.288391 1521.119507 732.617676 1095.217529 258.059113 1321.939209 977.486023 59.269661 838.422852 228.043228 517.168823 449.513123 600.885132 1088.158691 474.026917 1471.805908 1088.312134 560.665283 1830.986694 680.900024 782.262085 182.470383 460.558990 734.139771 624.571838 855.680054 407.959106 699.049500 211.986374 740.260681 155.222198 1701.330444 603.710754 1178.688354 1697.232544 300.516968 497.343872 654.163757 2035.160400 419.535400 912.286194 83.386963 1294.724365 212.264511 481.403412 420.686737 1000.052673 155.803238 2069.175293 253.270798 1491.881348 758.275024 290.590942 392.685120 857.640930 478.353271 709.397400 618.958862 771.160095 406.916931 155.218048 1293.831909 842.974182 2118.547363 3971.626953 629.577515 474.456268 927.616333 70.415237 983.152222 536.997620 834.578918 361.972626 321.006317 263.329102 569.755310 726.616638 483.790314 624.278931 523.624084 316.748322 822.247742 432.191620 604.866821 
conv_70_param_0 404.904877 1211.817505 327.531067 533.970947 1154.730591 536.194763 798.517151 846.397461 859.718872 744.798157 1062.659180 366.923737 441.414581 608.959778 819.757202 621.322815 762.744568 695.311035 850.554688 733.081177 949.860718 1422.315186 499.633759 1167.472290 805.163879 534.032776 648.705383 718.013550 778.878235 651.220642 1219.134644 703.259216 640.214294 818.250610 563.998413 1638.270874 329.300537 442.961517 842.073547 1727.087402 825.503662 357.675751 460.417328 1330.473999 545.821899 469.506409 931.218140 1522.432007 1079.450073 1124.889282 428.223602 384.434906 833.119629 457.626740 621.273132 1470.067139 1227.196411 721.669556 1445.316162 397.325592 680.804199 1009.698730 787.863831 754.139587 1168.920654 463.734619 930.268066 1231.805786 1522.746582 1759.819580 757.609985 678.961975 1037.223999 528.381714 1253.443970 622.299866 886.478821 772.599304 717.998535 1121.183594 508.660187 811.799927 535.713074 639.207275 542.308777 1834.847534 429.344025 1728.175537 544.086914 575.560791 1544.874146 1253.736572 1346.504883 1233.591797 1597.043945 708.890442 2004.321655 1717.321289 1605.801758 1029.675659 801.957092 1086.766357 380.956879 463.560852 726.586731 736.812622 700.367249 945.201111 624.326172 920.063782 1326.355469 806.688171 549.847534 497.263245 1455.232422 725.431885 556.302612 712.751770 565.537903 488.668701 549.596130 730.660339 666.167358 522.692871 1609.038940 677.908752 439.522461 2992.772949 
conv_71_param_0 324.616516 314.357910 283.942169 200.697556 176.680130 183.137482 188.072723 231.776962 328.683990 290.071716 213.537140 242.667603 274.051819 322.470612 219.045547 123.640083 289.347321 346.904968 434.166992 209.595184 275.307281 235.581024 137.884323 339.901978 311.322906 194.030136 198.687668 312.307983 165.378708 249.992340 342.546082 314.827362 163.290939 298.771118 168.676056 332.303497 245.513763 242.540009 235.465302 203.984192 353.925201 338.032715 260.046356 280.332916 264.331879 244.901779 223.115067 230.160873 251.474411 335.224213 232.099350 208.928741 287.475586 284.439545 185.831360 233.342484 227.618103 266.022125 138.324066 368.106110 319.024597 308.055237 221.614105 303.079926 323.481689 191.811234 220.491730 297.797119 261.038971 346.910461 256.870361 494.038483 248.593658 205.656494 330.468597 282.141846 241.285187 322.070526 239.394302 226.727707 262.589691 242.457489 261.776764 248.233749 299.134216 466.667725 352.254608 151.698959 338.326294 247.399445 256.540222 155.586929 196.426193 296.434387 374.509705 215.004639 206.062576 263.591980 295.887878 233.430679 294.022400 198.739380 387.588470 244.210983 209.768372 279.499786 398.321991 174.111511 294.189209 214.123428 250.971069 260.374725 218.669296 242.871704 190.701889 306.493286 306.705048 428.126953 237.012772 167.925827 353.079437 263.242065 189.900925 192.589569 285.651642 362.250122 314.368774 203.069901 494.071014 351.318390 397.112854 479.285187 625.512573 669.930054 363.468536 446.407654 631.926819 193.096298 203.005554 905.910217 1789.065552 589.178223 462.382843 254.005325 643.833984 424.860199 212.333618 137.277802 1291.244629 640.035828 368.266663 356.225006 495.437958 349.202545 340.822937 401.378662 517.399231 614.374146 469.431763 626.504639 294.408386 599.804871 519.962463 689.277527 500.419922 718.559631 509.443451 1174.873779 467.500793 393.928070 553.746338 417.135864 416.577545 442.175415 487.046234 562.952148 436.579346 616.140564 403.650330 521.067078 287.206451 253.790497 613.309021 1033.264648 644.354736 344.155640 864.734131 572.510010 801.228394 442.465515 305.024170 530.551392 406.002777 276.447723 218.045639 444.771423 358.499725 671.489868 517.178589 634.712219 473.304474 571.114746 551.468994 234.018997 220.863739 654.972046 385.441833 914.676697 340.337769 525.944641 199.579758 508.186188 206.071274 700.351196 452.753662 450.874786 263.996582 540.048279 502.667236 552.802002 478.764130 840.998413 496.805328 764.903198 138.625351 770.913269 760.744446 366.767914 440.866211 1492.771729 605.761169 378.632599 521.187134 274.749664 668.123779 608.736206 513.169922 320.433350 329.839478 556.603088 723.158386 318.294006 302.960480 413.324493 394.004395 358.379761 315.932922 296.800201 570.980469 528.303711 598.521057 121.262077 576.603394 529.153259 575.721802 668.362854 
conv_72_param_0 212.589767 192.078354 82.964470 75.042549 129.026550 98.978340 58.238613 58.149002 59.487850 106.098907 67.949364 140.785019 81.694664 210.780304 44.113251 86.350967 74.756973 66.457443 115.781570 182.635193 83.594406 112.587418 258.971649 122.843307 37.209587 93.676048 128.932037 63.032597 98.347015 157.630096 131.443222 101.884422 183.309113 34.456020 41.781334 115.567207 163.158096 75.072105 105.593262 93.574516 47.404308 74.589104 90.976105 123.637001 106.970024 95.250557 137.798004 95.912201 48.481094 78.514664 95.806976 95.307648 79.016624 128.371338 66.077087 119.394974 109.502541 54.063671 102.449028 72.898766 113.944962 112.134193 105.446075 55.455956 
conv_73_param_0 90.751335 109.880882 67.948654 89.311897 105.018578 103.680305 116.013466 92.701782 141.483261 176.264282 69.354942 96.670395 260.238983 92.550453 234.554291 83.576874 344.350983 137.182251 36.349380 265.902344 176.925858 208.206894 112.127617 207.205627 103.721474 108.797119 70.053581 195.737839 195.869049 189.272491 165.685867 75.803505 120.019096 105.010246 67.309891 99.493408 193.345490 221.041992 94.277290 141.855927 104.844376 317.534058 58.013103 112.927986 111.631615 97.260620 172.403030 100.210365 57.690224 87.213837 106.358398 92.437279 181.263168 91.601097 105.955154 132.512589 109.620323 77.237045 41.760330 131.282959 80.963722 117.060890 75.909927 209.911209 85.989403 133.348785 152.883255 97.795998 129.275238 94.694504 58.186665 59.649921 311.872589 170.438995 81.729500 103.153160 95.974297 89.693901 104.472359 190.623611 95.113380 82.467987 275.961090 89.517059 302.651611 90.828957 261.261475 100.407280 71.824036 131.152191 135.646164 79.279205 102.619240 294.989044 67.788513 73.000977 152.472748 104.305191 142.606888 90.484482 81.711334 107.814781 129.527802 122.003082 134.454712 127.721390 349.990021 100.694977 150.886002 93.597725 90.334816 192.639603 244.041885 135.047226 184.632980 87.609627 310.208893 97.722458 53.176434 61.136742 63.339523 198.800491 151.261398 114.013977 139.305771 118.641869 140.694977 70.698509 
conv_74_param_0 437.372498 478.792938 377.162689 472.153717 935.148743 565.392456 672.485474 552.572327 647.261475 618.101135 898.448730 795.971558 451.313751 717.914734 385.229401 524.218262 518.677063 470.206512 578.307495 498.911987 629.282349 436.864197 604.743530 672.504578 314.265167 808.120361 475.690338 510.396759 311.100159 502.113159 452.915863 343.183685 476.119934 683.237671 270.402954 882.191528 713.372314 632.290161 437.801697 401.597717 525.681396 497.679291 646.119019 276.116150 375.194244 448.719604 228.764847 636.943176 521.909424 303.383423 380.095184 291.619080 513.447510 431.331055 472.772217 350.730957 463.717407 293.113403 479.002197 407.449921 350.798981 375.285461 516.880432 320.804138 1389.613037 368.550201 471.827332 2098.183350 580.178406 208.123184 473.398163 1908.545898 2373.156494 609.398621 2451.344238 2080.467529 212.735565 1584.419067 1752.942871 2005.830444 751.800415 585.076843 373.625580 1149.091797 781.868164 316.330048 335.255127 3214.303711 340.381775 353.308960 1990.338501 452.411804 400.709503 686.850220 2665.781250 2246.988037 1394.213867 622.199707 2385.178711 764.179688 314.795898 1019.470154 329.051575 895.870239 951.368347 1615.040039 354.852570 299.892670 239.885574 958.141174 1127.966553 653.636719 2296.814697 1874.126709 1590.632568 1701.486816 294.555420 334.270264 2318.764404 484.471130 580.975281 895.140564 1938.192139 822.707458 278.229279 1109.093994 1732.552490 395.584259 394.639465 570.013123 627.451172 350.861115 597.607422 399.668610 641.289734 431.297668 346.489655 529.245239 586.157166 305.848511 626.354858 449.215271 508.410370 679.337708 564.566223 667.444214 405.828796 412.808868 318.166534 511.836304 439.224243 442.564697 450.252014 494.104004 552.384155 535.251831 310.287659 506.268860 552.531677 393.875702 383.137146 453.990845 337.008423 522.255310 426.700867 375.879150 403.857361 338.202545 494.673889 616.659241 227.205841 581.825745 385.280579 430.712250 360.142426 738.676147 552.093323 297.448883 209.797195 332.752747 294.280975 432.003998 264.013336 388.439819 471.628448 368.240875 423.108185 470.714569 686.745422 308.777039 817.041443 283.593811 358.657166 904.675659 409.915741 1812.980469 286.335327 1274.043701 730.324341 2493.777588 1967.791260 827.371948 367.077118 1139.189087 177.889221 780.951965 235.761581 392.523895 1372.247925 2266.088135 234.084137 170.359131 380.316315 371.043182 832.677917 510.038239 356.861237 1191.116699 520.683777 423.257141 2976.489990 300.341614 1551.122070 444.145111 217.749176 3025.970215 1417.727539 287.978363 1975.003052 1641.746704 2357.768066 3198.496582 997.232849 254.872696 125.464973 251.490051 384.058929 539.887512 333.614716 286.701752 149.095230 255.347107 331.952576 316.719452 2068.259277 1470.641602 369.060150 986.948181 273.311127 388.218323 478.613495 1491.401001 845.782715 631.626831 284.830627 268.587524 
convdw_211_param_0 23.714058 189.791275 523.042908 21.635410 136.148422 1855.006714 225.570023 35.298946 19.283258 774.943054 16.409836 36.519634 491.635712 25.779535 40.371376 18.842390 74.106186 82.102135 554.123718 106.087387 131.174088 198.788391 224.364929 19.174572 358.916473 582.305054 15.447734 189.765335 1163.239502 43.688972 23.172806 28.417509 68.287239 90.782463 23.937290 202.705307 740.226929 45.697891 187.728210 52.243828 66.227676 23.097668 691.302734 915.237854 112.712791 72.962471 68.376678 52.568905 16.364861 35.779015 57.729397 20.063965 147.549805 122.544556 39.584682 230.020584 85.327309 51.638851 15.822562 47.685604 1035.844727 14.010999 35.859348 278.037994 544.232239 54.938839 125.489227 31.382616 542.946777 37.375168 70.130928 30.387865 37.244579 43.865627 87.379524 48.525158 972.402466 39.006645 356.944092 176.179947 36.167957 30.041647 368.437836 357.180847 119.651146 187.440231 50.352425 198.308746 303.122345 18.752932 1513.603760 336.896454 25.825583 485.744751 30.585411 292.534790 118.882217 24.635311 25.247709 127.781052 14.159648 32.791126 37.615234 18.751703 109.196037 141.170441 581.512207 130.451553 68.807533 295.626740 266.629028 196.512589 1035.661865 137.036636 120.435966 55.128620 33.770603 36.029308 184.304718 15.731581 455.714172 29.044285 252.598846 39.179527 55.236385 410.290680 1233.220825 362.857697 
conv_75_param_0 840.798340 1130.391602 1082.355225 851.207642 4569.885742 3943.761719 1203.254150 2047.463867 887.152100 1135.212769 1268.476807 580.127625 1090.731201 948.047424 1060.169800 720.880188 1240.773682 1357.440186 702.815491 1363.224609 1526.473755 1301.371704 638.522827 1164.744507 736.309021 1928.648438 681.191956 2198.747559 2068.865234 1697.239990 1466.389404 938.233093 1144.696655 1178.931274 1506.402100 881.732361 843.823975 1381.176270 923.620728 808.034363 1321.026978 776.790771 870.633606 1172.928711 965.638245 893.137329 467.509613 1451.905151 821.342468 1384.649658 2211.136719 1654.275635 1367.281860 1528.077271 719.164978 1016.116516 698.329163 2114.053955 1225.013794 532.839905 1207.643799 1596.414307 1038.435059 1864.313477 1389.429443 2142.106201 1317.364380 1779.334717 1759.152710 606.685547 990.382385 1050.726929 1301.830933 1341.775879 1518.903076 430.561462 967.979248 740.339478 596.410461 1860.842773 2565.986084 826.139709 1541.011963 659.053101 1822.918701 585.666077 1572.142334 1269.561890 753.559570 2102.366211 819.135681 517.480469 1138.838379 1144.170044 2231.317139 1322.287598 971.358032 1147.671509 990.928528 453.430695 2013.963013 1231.401611 1067.024658 1521.026978 1168.642212 1693.887573 1650.940186 1441.567627 1708.847046 1727.285278 721.750244 1652.745605 2394.579346 3702.757080 1805.126831 3940.577393 1288.310425 1674.341797 1174.577637 1443.944458 1858.945557 1795.425659 1012.501282 1135.512329 1613.328613 1978.937744 1659.638916 1144.151001 
conv_76_param_0 806.794312 578.071533 376.186859 248.432037 292.916870 164.359467 440.332031 356.332794 421.884430 251.631241 437.813263 315.460968 784.731567 630.078796 564.551514 528.486145 382.933746 479.434784 290.204895 336.257843 618.071289 527.790283 637.083984 222.070816 156.026245 265.851257 710.722595 354.697113 443.210419 885.813721 322.731659 887.692261 514.675964 474.423553 549.547241 693.466553 433.743286 327.021484 341.699402 337.694092 754.379822 239.141327 307.919128 318.739319 252.681229 209.491745 517.088196 446.422729 240.942871 214.344391 134.076004 396.245544 435.536407 307.734955 438.286865 327.615906 471.276367 513.807312 381.332397 410.424438 181.953064 594.956116 458.131714 806.319519 945.058472 270.657257 914.681335 687.345215 356.417969 188.253769 719.013123 719.171448 486.916901 448.386353 359.328247 583.527222 483.581909 274.426819 142.140625 541.709106 620.448120 783.573181 827.956116 222.040024 388.998932 166.649765 690.960022 689.829712 519.572021 194.611557 507.661163 1038.643311 640.863708 734.012878 874.616516 567.545898 270.466187 463.278168 814.143005 937.464233 516.863770 536.803650 294.065125 288.941498 451.834290 319.677338 558.946228 242.047180 445.089233 284.274200 445.368500 510.073853 434.094818 223.198288 297.537109 370.829346 904.213440 271.401794 198.156525 239.716385 665.358459 780.331848 330.128815 609.543274 481.342834 566.833069 461.416138 431.819977 430.438049 621.419617 353.472931 625.562744 909.079590 221.663895 506.407532 438.411896 783.193054 377.567047 366.129700 1134.418213 331.355591 628.719055 585.390686 297.399445 185.528793 660.969604 1158.903320 668.948608 733.690063 278.910004 333.405579 572.137024 621.735046 287.044922 374.243439 694.963867 425.857849 661.102173 583.135193 459.652069 569.331604 198.039383 476.355865 318.720123 274.767883 421.072235 364.332611 708.958069 183.718155 208.691864 380.363861 487.059906 199.263733 361.545135 274.470306 155.634125 329.568298 808.981750 631.984314 336.173523 362.688202 187.171677 395.799133 632.348145 697.109314 1168.743286 312.599854 588.046204 320.168915 436.938843 581.280334 654.962524 388.675995 801.830383 522.077759 404.435638 555.779846 291.366821 258.708160 479.753326 420.611206 1066.515747 615.192383 496.466217 278.070435 361.691162 334.993439 611.455383 611.205139 313.635223 242.659851 549.199463 576.766724 144.563843 587.658020 560.089478 773.846191 763.757568 200.103043 561.059570 174.068924 361.986664 238.442093 573.048767 303.741760 593.917297 587.935913 520.792236 740.897949 874.815125 448.671417 256.937744 265.380737 182.930374 438.430084 421.901062 262.684204 209.640366 507.016327 469.171387 141.823257 291.989960 329.857269 519.373657 209.450974 314.718689 657.940186 428.402039 631.914124 424.589752 784.961609 354.175842 340.031708 489.265198 416.209717 324.555634 
conv_77_param_0 386.807770 417.368073 522.049072 529.444519 332.682648 438.435486 705.751282 543.718811 439.926910 367.359985 762.690674 1324.208618 631.495056 572.954407 400.550018 392.949036 631.410156 357.763672 354.542175 620.354065 659.755249 517.279724 403.723267 729.741943 443.932770 652.276184 213.456894 746.703247 725.810791 473.242340 578.211731 386.764832 382.531921 488.382782 610.847778 1304.740601 276.677551 619.058167 382.472717 1031.622070 648.798523 437.193268 217.256042 587.343872 448.649292 568.835205 948.457886 451.971558 317.767609 453.569458 729.655334 765.668152 1117.884521 498.242798 702.151917 534.532104 363.527100 1021.562256 481.896515 316.390900 809.575989 616.906250 704.485962 519.696411 240.262039 582.282410 443.779755 556.386475 722.464539 418.637939 258.799469 497.881775 476.525879 500.538635 821.349548 818.193359 216.488937 265.885803 751.279968 387.073273 388.048370 844.216919 463.027344 287.636353 482.625061 307.126282 531.736084 362.991974 306.629425 701.168701 449.502075 2565.801270 554.345764 459.113922 982.186584 437.437988 434.534485 471.803101 550.682007 230.256973 577.510620 547.576172 450.664551 685.776489 565.259705 324.136169 843.402710 425.480469 500.866852 604.913513 451.282928 742.638306 623.322571 436.161926 496.775513 525.481628 867.606934 535.416626 688.561218 385.727142 665.358032 607.570740 619.923523 696.550354 547.318909 578.132080 1757.876465 603.350098 
conv_78_param_0 428.701782 315.699341 1556.669922 2556.849609 521.977722 2301.790039 9517.325195 417.099884 222.190262 5414.766602 2262.482910 2185.075928 319.346466 2562.674805 3917.361328 1560.597046 3423.643066 2101.667969 987.381531 3490.813477 317.588531 3973.887207 1490.898071 2032.163696 1897.526245 2299.771729 2399.612793 747.840942 1115.534180 5509.864746 1927.794556 356.284882 2959.906006 2063.570801 2918.095215 531.382202 1949.291504 2447.760986 1988.944702 1308.677856 344.163635 322.789246 1075.817139 10031.512695 2771.995850 3511.259521 537.793091 520.710938 2177.802979 265.722565 5152.501465 276.614716 353.149109 664.312683 1558.145386 3505.522949 3165.896484 480.686127 502.643524 1699.952637 674.311646 5943.115234 2400.909180 782.002747 3448.339355 1388.939087 2357.595459 2682.341064 381.441193 1611.212036 278.158752 602.040405 891.420776 342.266968 1360.071289 457.534698 1353.857666 598.113953 3922.105713 1290.152588 898.774536 1510.649902 991.382935 5461.617676 492.342773 2723.838379 2789.008545 5812.738770 1161.348999 540.554871 1712.116455 1711.820190 1649.678955 429.249268 1508.955200 2324.313721 541.854980 409.159210 371.078156 2239.581543 1645.836426 1194.772583 1744.568970 5306.466309 3154.909180 3038.013916 2667.406982 295.988312 727.001099 653.577820 306.788605 2024.006836 1817.788452 508.284454 1555.193237 1605.042725 6054.174805 2498.357178 531.162048 2804.600342 830.736084 1720.769775 375.039764 423.192535 957.335266 2736.136963 1831.473633 1721.881104 1693.588501 740.981689 531.191040 2244.441650 1793.220581 1973.621216 1486.040405 1231.095825 1411.216309 459.612213 776.238098 4804.198242 1231.806763 485.806030 1873.170532 577.301575 1959.195923 396.579712 1257.267212 422.307953 264.968323 527.584290 350.418884 2145.145020 1667.723633 411.632355 6743.282715 3735.625488 3809.128418 533.977051 450.624207 2811.438721 564.029175 1721.989136 5622.824219 477.810577 1581.296875 4744.239258 1870.348389 2747.757324 1980.490845 437.382080 901.548950 278.831482 3162.480469 2735.454834 670.172729 1164.177734 873.349487 972.086365 4322.017578 219.426285 2394.990479 1262.008667 378.473969 607.625305 843.492859 821.092712 2970.180176 1143.138672 121.858910 296.962128 1808.013184 4819.321777 2568.623291 594.333313 500.530243 3158.345459 1891.651367 717.686096 2447.892090 1946.551025 2565.973877 2553.572021 1221.465454 1905.665039 270.262604 452.355377 1456.757690 691.302002 1955.917358 3457.966553 318.137695 2651.026367 2232.732422 1172.203857 2947.573975 475.066437 2074.315674 294.851868 543.545471 443.671417 2557.099365 523.999084 1873.540527 1849.774048 4167.913574 494.666138 2495.159180 391.943512 3617.645508 3056.198975 2503.617676 5748.550293 487.376221 383.219604 1936.886963 2699.989746 3006.592529 6530.072266 802.296692 448.852966 924.375244 3190.345459 581.739868 1129.699585 1437.240845 1713.703003 406.690369 2798.855225 342.411957 460.403259 3466.288330 3316.715576 768.627747 1480.457642 3485.821533 350.065460 
conv_79_param_0 44.987259 309.886353 66.052963 329.693634 45.314388 125.095848 83.126144 142.984695 44.624657 94.059029 36.937874 28.919701 44.014965 60.617680 60.929482 73.024658 
conv_80_param_0 65.151299 229.385666 88.072937 42.122189 176.504044 22.702242 108.862167 116.512489 131.782761 183.802567 32.006119 47.365784 67.522133 252.657318 45.139118 97.576027 
conv_81_param_0 132.634369 159.177475 160.059082 164.617722 
conv_82_param_0 200.664429 258.473175 67.047295 173.675613 86.006973 56.822224 102.548904 67.686935 68.121391 60.314396 87.303802 157.014374 175.152832 127.025497 58.851971 111.175934 
conv_83_param_0 107.349785 169.846497 121.122086 283.547394 46.748543 45.661873 54.020706 253.094574 151.318665 88.075562 83.384491 42.843094 101.744621 237.691299 132.485489 42.795567 
conv_84_param_0 176.336273 149.738632 145.548965 146.781036 
conv_85_param_0 345.322601 188.522934 303.007660 113.446335 623.221497 548.608398 166.177338 60.022839 143.669830 200.159103 546.523804 136.864868 94.845314 103.249397 142.725616 379.143829 
conv_86_param_0 64.275276 49.978374 80.809967 93.091064 23.866676 201.690186 22.649975 134.208282 33.501324 43.373035 121.465126 48.807613 89.774719 208.828568 123.295013 93.657486 
conv_87_param_0 169.664703 135.185028 180.121887 127.623161 
convdw_212_param_0 99.856689 312.063538 133.793427 104.342461 62.421638 156.209915 73.070404 89.292656 217.798462 275.296417 256.038361 111.688553 55.693462 81.725441 82.055862 161.988770 105.752731 55.886574 56.724018 251.144684 167.781601 98.683609 197.505798 244.667465 380.888306 77.766373 163.152420 205.503983 94.758774 100.639771 75.027176 76.536194 449.936249 92.283997 227.244324 114.872169 132.501663 196.975677 142.008804 147.850800 61.050964 83.620415 418.655396 115.903778 143.782333 58.000988 201.702759 131.973007 176.751373 73.047272 72.084335 131.709106 77.887863 99.094543 85.769920 449.366516 160.605179 53.752079 103.765694 186.050720 263.631531 85.195824 68.676994 299.381226 
conv_88_param_0 237.025375 222.967499 155.154663 202.549500 228.623779 486.946716 346.989532 251.861816 312.514038 383.183594 244.681992 359.377716 365.524048 338.329407 252.121780 290.466003 357.900146 306.462433 342.089569 321.624847 266.595703 227.731964 408.166107 224.861450 181.672729 307.073517 246.885635 215.401199 206.507477 311.561188 208.684280 363.816589 237.485352 178.078217 337.255920 241.767227 331.236969 382.387848 313.556427 237.002380 262.892395 281.104340 185.192429 209.347443 355.782867 516.542908 271.399506 283.084473 268.360138 252.369705 360.527771 258.477631 263.992889 297.266663 305.478882 386.630127 364.839020 305.182343 307.976044 269.266937 237.333344 174.321518 279.561157 271.897278 
convdw_213_param_0 44.751366 122.451088 76.930893 83.506645 59.798908 131.198425 69.674751 127.394905 248.074127 139.132919 66.585480 123.470482 85.405006 165.826447 129.126984 87.516357 188.121048 132.966858 109.138695 118.955688 95.360596 85.172310 90.099884 185.075516 153.670868 72.104088 160.056519 90.212662 169.489594 124.522438 77.155701 117.610565 160.943695 106.839775 70.164185 101.381577 180.998398 85.417671 138.412842 88.176392 70.877953 185.656143 55.413227 140.222366 139.632080 178.220337 137.068008 176.144440 227.389938 102.493858 108.748764 184.050476 83.217377 121.819351 137.968460 151.546738 94.472603 279.444855 191.079849 103.782661 113.894379 102.292099 84.388992 80.381493 
conv_89_param_0 142.936676 196.276535 305.883026 181.227600 225.048126 283.365997 216.252365 244.576477 181.071701 204.385101 235.084106 223.409622 230.036652 215.358444 236.685013 193.106018 269.880859 252.218842 263.211792 182.833450 346.748413 329.768372 174.307373 194.668854 196.347885 523.428162 263.466827 246.744675 235.093475 204.005417 178.907852 327.044281 261.276917 287.610504 267.159119 200.558594 238.350235 319.752350 209.639069 328.073334 308.960541 402.205566 190.442245 249.144272 259.190979 240.002228 301.921631 216.136993 246.680725 277.036560 209.098724 193.245224 267.230347 226.481079 213.028656 214.730118 222.291885 222.071030 222.294205 162.606033 404.530945 252.698074 312.926208 203.169556 
conv_90_param_0 259.576843 241.500458 229.563995 
convdw_214_param_0 66.257217 230.004425 241.435959 97.601585 102.807678 177.746307 117.812721 49.489414 53.973183 113.795219 348.828186 132.332108 67.978584 48.117592 73.164246 87.935425 113.487083 68.858444 31.229471 130.065842 100.940170 219.522110 216.273087 61.915634 349.742584 83.490372 89.863632 116.237312 84.302147 140.701050 136.025070 86.117165 239.708923 505.848236 125.865356 79.769043 197.895981 149.785583 193.555161 153.660431 142.576508 98.687714 143.772949 45.723400 147.483139 91.373428 82.227448 210.312866 417.068512 34.362968 185.408585 567.701172 77.534698 184.994431 63.758659 71.261864 201.326080 96.325287 870.720947 141.246246 150.670410 128.711105 104.803505 81.254128 87.352386 353.525513 319.791504 44.729000 80.024902 90.873871 253.603897 89.746330 343.551361 33.830372 241.527817 103.182793 86.739319 53.022030 116.273750 473.134216 171.511841 252.395676 153.175064 127.077705 118.512833 134.879044 176.140884 238.727051 196.222107 178.294769 62.862362 237.109940 108.229813 278.727936 92.054993 114.149040 174.013596 128.527176 69.529091 440.102020 90.956642 52.521954 109.426559 58.043163 157.630219 77.502747 103.094299 19.365921 117.087250 169.740158 488.191223 132.320938 322.865417 347.532623 93.989037 207.903885 180.463501 521.293457 380.436157 102.959007 118.021217 264.858887 188.301315 588.171936 226.908066 88.467537 301.165680 592.579590 
conv_91_param_0 308.309845 276.519012 363.913910 364.087738 391.430695 281.645905 399.333282 403.719269 184.351639 436.921356 403.373474 320.745972 409.854675 500.319275 390.782196 314.281616 431.307831 367.299805 569.423828 290.926178 277.515045 588.430054 411.615417 512.000061 354.024902 406.147034 434.023560 558.860779 545.279541 292.725647 380.884766 368.572510 457.821289 549.675476 542.785461 204.919678 388.441620 464.979584 421.336456 348.002502 292.418213 188.380600 247.940521 231.919861 515.607361 574.853943 258.028992 469.137360 336.541290 388.544525 424.375763 389.511566 450.623291 435.250702 413.421753 402.353455 484.954193 417.591614 446.802032 358.285919 352.835602 328.512756 308.604675 317.913574 
convdw_215_param_0 47.038860 79.552925 88.716904 130.603241 161.023880 130.494705 249.027710 49.318859 136.110382 98.427666 193.007355 98.805557 104.100067 191.432114 220.574432 64.560715 149.663345 158.596130 89.251755 197.272507 156.138885 109.541962 206.017227 126.188263 199.560135 112.060898 125.970490 257.448761 104.888084 336.673401 231.068848 156.826782 262.997925 108.609650 108.549965 76.105049 99.759827 153.627411 101.137589 107.836456 69.461533 171.638275 110.483688 134.624390 160.361588 167.634628 143.722946 121.820717 213.058228 143.123245 150.222290 130.932938 113.603638 252.867630 127.177605 164.817245 167.160706 140.245285 113.826790 127.557358 53.914654 111.589256 108.270264 186.453064 
conv_92_param_0 240.056366 211.343842 184.136322 413.708588 627.943237 284.025146 387.292084 449.821045 285.136780 308.289215 190.384216 293.890472 243.637695 386.444794 489.161072 239.722351 462.198090 503.313477 394.885864 224.367691 459.733307 262.331024 273.256439 285.207458 238.072739 501.738953 310.830109 226.293350 439.772552 316.531006 380.628845 318.183777 417.096832 277.277893 307.478760 407.889923 285.391785 351.635895 277.369049 378.310303 217.554581 486.323822 425.816803 200.384659 296.272339 371.953461 344.116699 283.800751 327.886017 430.198090 303.418243 355.199188 334.291687 440.163849 295.990143 267.241913 248.591278 458.276703 386.967316 499.220947 420.261505 413.062042 238.162949 384.333282 
conv_93_param_0 290.935120 258.930817 286.923340 
convdw_216_param_0 327.098145 305.065094 63.774361 39.745094 487.821045 105.368668 42.379303 224.999252 272.516968 132.276520 99.809273 66.226265 439.643982 109.736298 61.358482 117.923149 79.808594 113.060638 59.833965 33.291397 301.428131 82.245438 41.677422 37.818054 22.481512 84.541306 131.663773 67.148476 263.393799 67.849846 40.122395 417.778870 87.659904 188.179611 130.906677 248.864761 79.091057 150.494812 96.677361 59.131382 207.889618 291.874115 171.048569 32.142151 44.034821 102.238838 152.428589 609.867371 69.315002 348.500610 62.940723 456.918091 828.476807 133.935745 116.528427 22.515347 147.496063 266.746582 179.694992 61.500256 95.551186 34.383415 92.833611 147.962616 46.933220 65.923096 46.866562 186.923325 317.769653 90.043579 352.055267 113.259483 136.274124 418.385193 105.967239 276.764862 79.046593 536.317444 17.993406 140.285965 184.630463 54.544067 105.935760 117.563972 139.293182 62.975414 143.626282 27.971827 87.524635 418.150665 34.492989 91.609535 98.396324 256.243500 122.959930 111.417412 301.397217 221.523361 145.640396 118.277588 153.370132 149.505402 68.872826 89.637253 137.226395 138.584579 115.352974 449.808105 25.337000 85.442299 389.075317 69.059883 99.032646 190.104752 121.842934 125.471535 44.389446 142.666000 305.304779 72.078682 319.895660 143.125000 504.938019 282.124817 229.329834 110.208015 93.698746 92.043663 132.013443 211.732300 104.474388 85.494682 18.491888 137.528015 110.552971 144.073029 165.275192 372.477234 159.033417 111.840195 35.536873 87.742416 133.564590 338.393707 109.622231 522.873291 120.878609 99.397186 185.407135 346.407776 367.024933 56.000790 147.234650 823.729309 53.122185 134.639633 116.400253 433.819244 360.269897 58.710003 183.375809 88.780983 38.991405 391.926361 65.356232 34.749046 103.538826 130.860504 187.276398 375.684784 171.733231 175.345596 21.108967 48.051243 130.287537 42.604633 146.697098 268.189178 73.099854 140.706635 42.671513 221.719391 160.671402 598.575195 119.356224 28.381170 180.253296 42.027523 521.318787 460.334930 93.148529 143.949234 102.287682 202.980392 237.675400 119.915520 167.362015 366.173767 70.058365 74.390625 85.791649 69.318497 40.580467 77.488319 258.780945 181.658188 116.577522 106.937363 72.415955 118.870583 438.517120 51.964207 120.083977 36.162128 90.434235 213.100555 24.592657 442.615143 257.979095 247.493210 113.579926 186.398895 103.487900 74.511230 24.550409 214.151642 65.595856 106.201714 96.844933 54.211151 131.045959 84.612633 586.055725 228.749039 115.952278 21.607546 107.400787 109.827705 71.972031 201.549164 191.739609 108.904175 343.429077 219.415726 112.477486 113.389488 271.835388 61.488537 255.724564 183.119949 29.967749 116.369347 248.852036 309.555267 127.315025 469.265045 
conv_94_param_0 1771.387573 2272.291260 1097.273438 1115.303833 1736.092773 902.596375 1694.439819 1500.994385 596.069763 1885.280029 1274.198730 2009.563599 520.698669 1638.906006 1278.809204 1819.295410 1075.935669 1420.161255 1714.890137 1669.723389 1699.602417 1221.019287 2466.474365 1990.350464 661.475647 1674.646851 1515.847168 948.338989 1571.582397 1548.494141 2132.780273 1462.320068 1811.320190 1481.344971 2030.022827 1069.609741 1149.568237 1619.837036 1591.083740 1464.945679 1349.036011 1222.431396 2324.717285 864.021057 1209.606323 1839.654053 1531.136963 2108.476074 1451.995361 1590.221680 1605.075928 1853.547607 1252.648071 2076.827881 1321.233398 1993.217285 660.209961 1733.740479 664.386169 908.491394 2070.375977 1576.229370 1569.991699 1720.415894 
convdw_217_param_0 178.358078 234.675293 133.319321 103.932976 120.844498 200.385635 149.525742 167.780151 215.608810 80.489090 77.167221 102.416008 173.806259 137.975067 147.081772 136.859512 167.450699 146.309006 146.605392 104.696785 69.217445 54.398663 135.136993 267.588226 165.351303 89.310669 68.442429 167.257843 96.693893 120.093979 199.622375 211.365936 125.089218 64.939659 143.720749 98.227539 173.064056 48.775337 54.624905 134.487320 220.013428 115.437263 146.570358 111.797554 117.092178 114.206146 131.602142 113.599449 119.826584 139.710007 97.635841 142.064285 167.925369 104.605293 145.925888 155.155365 118.205727 107.594017 107.742889 84.777435 84.757080 82.766670 183.747681 142.301056 
conv_95_param_0 447.519409 545.785706 387.646790 573.328918 536.861389 393.730682 626.414917 730.983582 245.142151 366.928101 574.561157 211.829468 244.529846 218.680206 412.403961 523.382568 300.908630 549.770264 510.803467 174.859482 638.896851 432.716003 382.139160 427.119781 538.518860 476.296722 516.551453 499.055267 379.002808 462.749329 687.414185 476.138824 609.873291 417.966156 255.144028 375.580139 454.441193 579.913391 754.824585 366.493225 570.843140 411.259399 540.609009 453.690887 569.230957 393.990784 317.225800 217.486954 278.010620 422.463837 561.298218 360.075256 243.528595 341.922333 460.411804 505.171173 614.160278 518.506958 437.040924 228.123993 348.221375 545.135681 355.124268 706.632935 
conv_96_param_0 363.770630 334.743896 351.243744 
#conv_3 281.946808 
#conv_4 6.580093 
#conv_5 5.750556 
#conv_6 9.503861 
#conv_7 148.261444 
#conv_8 6.625616 
#conv_9 20.242905 
#conv_10 31.251659 
#conv_11 41.403484 
#conv_12 38.802807 
#conv_13 24.589340 
#conv_14 78.188660 
#conv_15 35.259937 
#conv_16 35.575085 
#conv_17 59.534454 
#conv_18 56.671078 
#conv_19 19.704823 
#conv_20 55.838013 
#conv_21 35.575085 
#conv_22 17.414555 
#conv_23 35.469379 
conv_24 48.926380 
conv_25 38.491161 
conv_26 38.252277 
conv_27 56.553600 
conv_28 39.042068 
conv_29 14.255186 
conv_30 31.956772 
conv_31 38.252277 
#conv_32 14.058149 
#conv_33 34.771030 
#conv_34 35.571011 
#conv_35 9.414775 
conv_36 21.362753 
conv_37 28.179493 
convdw_210 12.716458 
conv_38 20.395411 
conv_39 15.860187 
conv_40 112.762833 
#conv_41 20.930128 
#conv_42 45.344990 
conv_43 38.682938 
conv_44 56.825195 
conv_45 60.214832 
conv_46 19.601551 
conv_47 70.293961 
conv_48 38.682938 
#conv_49 17.711876 
#conv_50 39.063358 
#conv_51 71.090683 
conv_52 38.973576 
conv_53 92.569191 
conv_54 42.666599 
conv_55 23.032146 
conv_56 39.142097 
conv_57 38.973576 
#conv_58 10.576947 
#conv_59 28.431828 
#conv_60 24.883667 
#conv_61 49.165150 
conv_62 31.670835 
conv_63 95.921944 
conv_64 52.959770 
conv_65 17.803278 
conv_66 42.277985 
conv_67 31.670835 
#conv_68 10.254597 
#conv_69 21.106167 
#conv_70 28.134249 
#conv_71 42.435143 
conv_72 63.804081 
conv_73 35.532372 
conv_74 14.239133 
convdw_211 12.030315 
conv_75 6.371959 
conv_76 11.734876 
conv_77 16.933270 
conv_78 17.062628 
conv_79 24.883667 
conv_80 17.757862 
conv_81 21.088551 
conv_82 28.134249 
conv_83 14.073612 
conv_84 24.756388 
conv_85 20.089777 
conv_86 13.897129 
conv_87 10.331846 
#convdw_212 24.883667 
#conv_88 20.969442 
#convdw_213 31.505363 
#conv_89 13.976556 
#conv_90 24.490343 
#convdw_214 28.134249 
#conv_91 24.532419 
#convdw_215 35.169914 
#conv_92 17.492323 
#conv_93 31.725349 
#convdw_216 20.089777 
#conv_94 13.757648 
#convdw_217 51.639549 
#conv_95 26.282368 
#conv_96 13.783130 
